{
  "version": "1.0",
  "truncation": null,
  "padding": null,
  "added_tokens": [
    {
      "id": 0,
      "content": "<unk>",
      "single_word": false,
      "lstrip": false,
      "rstrip": false,
      "normalized": false,
      "special": true
    },
    {
      "id": 1,
      "content": "<s>",
      "single_word": false,
      "lstrip": false,
      "rstrip": false,
      "normalized": false,
      "special": true
    },
    {
      "id": 2,
      "content": "</s>",
      "single_word": false,
      "lstrip": false,
      "rstrip": false,
      "normalized": false,
      "special": true
    },
    {
      "id": 3,
      "content": "<pad>",
      "single_word": false,
      "lstrip": false,
      "rstrip": false,
      "normalized": false,
      "special": true
    },
    {
      "id": 4,
      "content": "<eos>",
      "single_word": false,
      "lstrip": false,
      "rstrip": false,
      "normalized": false,
      "special": true
    }
  ],
  "normalizer": null,
  "pre_tokenizer": {
    "type": "Metaspace",
    "replacement": "▁",
    "prepend_scheme": "always",
    "split": true
  },
  "post_processor": null,
  "decoder": {
    "type": "ByteLevel",
    "add_prefix_space": true,
    "trim_offsets": true,
    "use_regex": true
  },
  "model": {
    "type": "BPE",
    "dropout": null,
    "unk_token": null,
    "continuing_subword_prefix": null,
    "end_of_word_suffix": null,
    "fuse_unk": false,
    "byte_fallback": false,
    "ignore_merges": false,
    "vocab": {
      "<unk>": 0,
      "<s>": 1,
      "</s>": 2,
      "<pad>": 3,
      "<eos>": 4,
      "\t": 5,
      "\n": 6,
      "\r": 7,
      "!": 8,
      "\"": 9,
      "#": 10,
      "$": 11,
      "%": 12,
      "&": 13,
      "'": 14,
      "(": 15,
      ")": 16,
      "*": 17,
      "+": 18,
      ",": 19,
      "-": 20,
      ".": 21,
      "/": 22,
      "0": 23,
      "1": 24,
      "2": 25,
      "3": 26,
      "4": 27,
      "5": 28,
      "6": 29,
      "7": 30,
      "8": 31,
      "9": 32,
      ":": 33,
      ";": 34,
      "?": 35,
      "@": 36,
      "A": 37,
      "B": 38,
      "C": 39,
      "D": 40,
      "E": 41,
      "F": 42,
      "G": 43,
      "H": 44,
      "I": 45,
      "J": 46,
      "K": 47,
      "L": 48,
      "M": 49,
      "N": 50,
      "O": 51,
      "P": 52,
      "Q": 53,
      "R": 54,
      "S": 55,
      "T": 56,
      "U": 57,
      "V": 58,
      "W": 59,
      "X": 60,
      "Y": 61,
      "Z": 62,
      "[": 63,
      "\\": 64,
      "]": 65,
      "^": 66,
      "_": 67,
      "a": 68,
      "b": 69,
      "c": 70,
      "d": 71,
      "e": 72,
      "f": 73,
      "g": 74,
      "h": 75,
      "i": 76,
      "j": 77,
      "k": 78,
      "l": 79,
      "m": 80,
      "n": 81,
      "o": 82,
      "p": 83,
      "q": 84,
      "r": 85,
      "s": 86,
      "t": 87,
      "u": 88,
      "v": 89,
      "w": 90,
      "x": 91,
      "y": 92,
      "z": 93,
      "|": 94,
      "°": 95,
      "·": 96,
      "×": 97,
      "è": 98,
      "é": 99,
      "α": 100,
      "β": 101,
      "γ": 102,
      "δ": 103,
      "ξ": 104,
      "π": 105,
      "ω": 106,
      "Б": 107,
      "Г": 108,
      "Е": 109,
      "К": 110,
      "Р": 111,
      "а": 112,
      "в": 113,
      "г": 114,
      "и": 115,
      "й": 116,
      "м": 117,
      "н": 118,
      "о": 119,
      "п": 120,
      "р": 121,
      "с": 122,
      "т": 123,
      "у": 124,
      "ф": 125,
      "ч": 126,
      "—": 127,
      "―": 128,
      "‘": 129,
      "’": 130,
      "“": 131,
      "”": 132,
      "…": 133,
      "′": 134,
      "″": 135,
      "Ⅰ": 136,
      "Ⅱ": 137,
      "Ⅲ": 138,
      "▁": 139,
      "　": 140,
      "、": 141,
      "。": 142,
      "《": 143,
      "》": 144,
      "【": 145,
      "】": 146,
      "あ": 147,
      "い": 148,
      "う": 149,
      "え": 150,
      "お": 151,
      "か": 152,
      "が": 153,
      "き": 154,
      "く": 155,
      "け": 156,
      "こ": 157,
      "ご": 158,
      "さ": 159,
      "ざ": 160,
      "し": 161,
      "じ": 162,
      "す": 163,
      "せ": 164,
      "た": 165,
      "だ": 166,
      "っ": 167,
      "て": 168,
      "で": 169,
      "と": 170,
      "ど": 171,
      "な": 172,
      "に": 173,
      "ね": 174,
      "の": 175,
      "は": 176,
      "ば": 177,
      "ぶ": 178,
      "ほ": 179,
      "ぼ": 180,
      "ま": 181,
      "め": 182,
      "も": 183,
      "ゃ": 184,
      "や": 185,
      "ょ": 186,
      "よ": 187,
      "ら": 188,
      "り": 189,
      "る": 190,
      "れ": 191,
      "ろ": 192,
      "わ": 193,
      "を": 194,
      "ん": 195,
      "オ": 196,
      "カ": 197,
      "キ": 198,
      "ケ": 199,
      "コ": 200,
      "サ": 201,
      "ス": 202,
      "ゼ": 203,
      "チ": 204,
      "テ": 205,
      "ト": 206,
      "バ": 207,
      "パ": 208,
      "ブ": 209,
      "プ": 210,
      "ペ": 211,
      "メ": 212,
      "ャ": 213,
      "ラ": 214,
      "リ": 215,
      "ロ": 216,
      "ン": 217,
      "ー": 218,
      "一": 219,
      "丁": 220,
      "七": 221,
      "万": 222,
      "丈": 223,
      "三": 224,
      "上": 225,
      "下": 226,
      "不": 227,
      "与": 228,
      "丐": 229,
      "丑": 230,
      "专": 231,
      "且": 232,
      "世": 233,
      "丘": 234,
      "丙": 235,
      "业": 236,
      "丛": 237,
      "东": 238,
      "丝": 239,
      "丟": 240,
      "丢": 241,
      "两": 242,
      "严": 243,
      "丧": 244,
      "丨": 245,
      "个": 246,
      "丫": 247,
      "中": 248,
      "丰": 249,
      "串": 250,
      "临": 251,
      "丸": 252,
      "丹": 253,
      "为": 254,
      "主": 255,
      "丽": 256,
      "举": 257,
      "乃": 258,
      "久": 259,
      "么": 260,
      "义": 261,
      "之": 262,
      "乌": 263,
      "乍": 264,
      "乎": 265,
      "乏": 266,
      "乐": 267,
      "乒": 268,
      "乓": 269,
      "乔": 270,
      "乖": 271,
      "乘": 272,
      "乙": 273,
      "九": 274,
      "乞": 275,
      "也": 276,
      "习": 277,
      "乡": 278,
      "书": 279,
      "买": 280,
      "乱": 281,
      "乳": 282,
      "乾": 283,
      "了": 284,
      "予": 285,
      "争": 286,
      "亊": 287,
      "事": 288,
      "二": 289,
      "于": 290,
      "亏": 291,
      "云": 292,
      "互": 293,
      "五": 294,
      "井": 295,
      "亘": 296,
      "亚": 297,
      "些": 298,
      "亡": 299,
      "亢": 300,
      "交": 301,
      "亥": 302,
      "亦": 303,
      "产": 304,
      "亨": 305,
      "亩": 306,
      "享": 307,
      "京": 308,
      "亭": 309,
      "亮": 310,
      "亲": 311,
      "亳": 312,
      "亵": 313,
      "人": 314,
      "亿": 315,
      "什": 316,
      "仁": 317,
      "仃": 318,
      "仄": 319,
      "仅": 320,
      "仆": 321,
      "仇": 322,
      "今": 323,
      "介": 324,
      "仍": 325,
      "从": 326,
      "仑": 327,
      "仓": 328,
      "仔": 329,
      "仕": 330,
      "他": 331,
      "仗": 332,
      "付": 333,
      "仙": 334,
      "代": 335,
      "令": 336,
      "以": 337,
      "仨": 338,
      "仪": 339,
      "们": 340,
      "仰": 341,
      "仲": 342,
      "件": 343,
      "价": 344,
      "任": 345,
      "份": 346,
      "仿": 347,
      "企": 348,
      "伊": 349,
      "伍": 350,
      "伎": 351,
      "伏": 352,
      "伐": 353,
      "休": 354,
      "众": 355,
      "优": 356,
      "伙": 357,
      "会": 358,
      "伞": 359,
      "伟": 360,
      "传": 361,
      "伤": 362,
      "伥": 363,
      "伦": 364,
      "伪": 365,
      "伯": 366,
      "估": 367,
      "伴": 368,
      "伶": 369,
      "伸": 370,
      "伺": 371,
      "似": 372,
      "伽": 373,
      "但": 374,
      "位": 375,
      "低": 376,
      "住": 377,
      "佐": 378,
      "佑": 379,
      "体": 380,
      "何": 381,
      "余": 382,
      "佚": 383,
      "佛": 384,
      "作": 385,
      "佝": 386,
      "佟": 387,
      "你": 388,
      "佣": 389,
      "佩": 390,
      "佬": 391,
      "佯": 392,
      "佳": 393,
      "佻": 394,
      "佼": 395,
      "使": 396,
      "侃": 397,
      "侄": 398,
      "侈": 399,
      "例": 400,
      "侍": 401,
      "侏": 402,
      "供": 403,
      "依": 404,
      "侠": 405,
      "侣": 406,
      "侥": 407,
      "侦": 408,
      "侧": 409,
      "侨": 410,
      "侩": 411,
      "侪": 412,
      "侬": 413,
      "侮": 414,
      "侯": 415,
      "侵": 416,
      "便": 417,
      "促": 418,
      "俄": 419,
      "俊": 420,
      "俎": 421,
      "俏": 422,
      "俐": 423,
      "俑": 424,
      "俗": 425,
      "俘": 426,
      "俚": 427,
      "保": 428,
      "信": 429,
      "俦": 430,
      "俨": 431,
      "俩": 432,
      "俭": 433,
      "修": 434,
      "俯": 435,
      "俱": 436,
      "俳": 437,
      "俾": 438,
      "倍": 439,
      "倒": 440,
      "倔": 441,
      "候": 442,
      "倚": 443,
      "倜": 444,
      "借": 445,
      "倦": 446,
      "倨": 447,
      "倩": 448,
      "倪": 449,
      "债": 450,
      "值": 451,
      "倾": 452,
      "假": 453,
      "偌": 454,
      "偎": 455,
      "偏": 456,
      "偕": 457,
      "做": 458,
      "停": 459,
      "健": 460,
      "偶": 461,
      "偷": 462,
      "偻": 463,
      "偿": 464,
      "傀": 465,
      "傅": 466,
      "傍": 467,
      "備": 468,
      "傣": 469,
      "傥": 470,
      "储": 471,
      "催": 472,
      "傲": 473,
      "傻": 474,
      "像": 475,
      "僚": 476,
      "僧": 477,
      "僭": 478,
      "僵": 479,
      "僻": 480,
      "儒": 481,
      "儡": 482,
      "儿": 483,
      "兀": 484,
      "允": 485,
      "元": 486,
      "兄": 487,
      "充": 488,
      "兆": 489,
      "先": 490,
      "光": 491,
      "克": 492,
      "免": 493,
      "兑": 494,
      "兔": 495,
      "兕": 496,
      "党": 497,
      "兜": 498,
      "兢": 499,
      "入": 500,
      "全": 501,
      "八": 502,
      "公": 503,
      "六": 504,
      "兮": 505,
      "兰": 506,
      "共": 507,
      "关": 508,
      "兴": 509,
      "兵": 510,
      "其": 511,
      "具": 512,
      "典": 513,
      "兹": 514,
      "养": 515,
      "兼": 516,
      "兽": 517,
      "内": 518,
      "冈": 519,
      "冉": 520,
      "册": 521,
      "再": 522,
      "冑": 523,
      "冒": 524,
      "冕": 525,
      "冗": 526,
      "写": 527,
      "军": 528,
      "农": 529,
      "冠": 530,
      "冤": 531,
      "冥": 532,
      "冨": 533,
      "冬": 534,
      "冯": 535,
      "冰": 536,
      "冲": 537,
      "决": 538,
      "况": 539,
      "冶": 540,
      "冷": 541,
      "冻": 542,
      "冽": 543,
      "净": 544,
      "凄": 545,
      "准": 546,
      "凉": 547,
      "凋": 548,
      "凌": 549,
      "减": 550,
      "凑": 551,
      "凛": 552,
      "凝": 553,
      "几": 554,
      "凡": 555,
      "凤": 556,
      "凫": 557,
      "凭": 558,
      "凯": 559,
      "凰": 560,
      "凳": 561,
      "凶": 562,
      "凸": 563,
      "凹": 564,
      "出": 565,
      "击": 566,
      "函": 567,
      "凿": 568,
      "刀": 569,
      "刃": 570,
      "分": 571,
      "切": 572,
      "刊": 573,
      "刍": 574,
      "刎": 575,
      "刑": 576,
      "划": 577,
      "列": 578,
      "刘": 579,
      "则": 580,
      "刚": 581,
      "创": 582,
      "初": 583,
      "删": 584,
      "判": 585,
      "別": 586,
      "刨": 587,
      "利": 588,
      "别": 589,
      "刮": 590,
      "到": 591,
      "制": 592,
      "刷": 593,
      "券": 594,
      "刹": 595,
      "刺": 596,
      "刻": 597,
      "刽": 598,
      "剁": 599,
      "剂": 600,
      "剃": 601,
      "削": 602,
      "剌": 603,
      "前": 604,
      "剑": 605,
      "剔": 606,
      "剖": 607,
      "剥": 608,
      "剧": 609,
      "剩": 610,
      "剪": 611,
      "副": 612,
      "剰": 613,
      "割": 614,
      "剽": 615,
      "剿": 616,
      "劈": 617,
      "力": 618,
      "劝": 619,
      "办": 620,
      "功": 621,
      "加": 622,
      "务": 623,
      "劣": 624,
      "动": 625,
      "助": 626,
      "努": 627,
      "劫": 628,
      "励": 629,
      "劲": 630,
      "劳": 631,
      "劾": 632,
      "势": 633,
      "勃": 634,
      "勇": 635,
      "勉": 636,
      "勋": 637,
      "勒": 638,
      "勘": 639,
      "募": 640,
      "勤": 641,
      "勺": 642,
      "勾": 643,
      "勿": 644,
      "匀": 645,
      "包": 646,
      "匆": 647,
      "匈": 648,
      "匍": 649,
      "匐": 650,
      "匕": 651,
      "化": 652,
      "北": 653,
      "匙": 654,
      "匝": 655,
      "匠": 656,
      "匣": 657,
      "匪": 658,
      "匮": 659,
      "匹": 660,
      "区": 661,
      "医": 662,
      "匾": 663,
      "匿": 664,
      "十": 665,
      "千": 666,
      "升": 667,
      "午": 668,
      "卉": 669,
      "半": 670,
      "卍": 671,
      "华": 672,
      "协": 673,
      "卐": 674,
      "卑": 675,
      "卒": 676,
      "卓": 677,
      "单": 678,
      "卖": 679,
      "南": 680,
      "博": 681,
      "卜": 682,
      "占": 683,
      "卡": 684,
      "卢": 685,
      "卤": 686,
      "卦": 687,
      "卧": 688,
      "卫": 689,
      "卯": 690,
      "印": 691,
      "危": 692,
      "即": 693,
      "却": 694,
      "卵": 695,
      "卷": 696,
      "卸": 697,
      "卿": 698,
      "厂": 699,
      "厄": 700,
      "厅": 701,
      "历": 702,
      "厉": 703,
      "压": 704,
      "厌": 705,
      "厕": 706,
      "厘": 707,
      "厚": 708,
      "原": 709,
      "厢": 710,
      "厥": 711,
      "厦": 712,
      "厨": 713,
      "厩": 714,
      "厮": 715,
      "厶": 716,
      "去": 717,
      "县": 718,
      "参": 719,
      "又": 720,
      "叉": 721,
      "及": 722,
      "友": 723,
      "双": 724,
      "反": 725,
      "发": 726,
      "叔": 727,
      "取": 728,
      "受": 729,
      "变": 730,
      "叙": 731,
      "叛": 732,
      "叟": 733,
      "叠": 734,
      "口": 735,
      "古": 736,
      "句": 737,
      "另": 738,
      "叨": 739,
      "叩": 740,
      "只": 741,
      "叫": 742,
      "召": 743,
      "叭": 744,
      "叮": 745,
      "可": 746,
      "台": 747,
      "叱": 748,
      "史": 749,
      "右": 750,
      "叵": 751,
      "叶": 752,
      "号": 753,
      "司": 754,
      "叹": 755,
      "叼": 756,
      "叽": 757,
      "吁": 758,
      "吃": 759,
      "各": 760,
      "吆": 761,
      "合": 762,
      "吉": 763,
      "吊": 764,
      "吋": 765,
      "同": 766,
      "名": 767,
      "后": 768,
      "吐": 769,
      "向": 770,
      "吓": 771,
      "吕": 772,
      "吗": 773,
      "君": 774,
      "吝": 775,
      "吞": 776,
      "吟": 777,
      "吠": 778,
      "否": 779,
      "吧": 780,
      "吨": 781,
      "吩": 782,
      "含": 783,
      "听": 784,
      "吭": 785,
      "吮": 786,
      "启": 787,
      "吱": 788,
      "吴": 789,
      "吵": 790,
      "吸": 791,
      "吹": 792,
      "吻": 793,
      "吼": 794,
      "吾": 795,
      "吿": 796,
      "呀": 797,
      "呆": 798,
      "呈": 799,
      "告": 800,
      "呐": 801,
      "呓": 802,
      "呕": 803,
      "呗": 804,
      "员": 805,
      "呛": 806,
      "呜": 807,
      "呢": 808,
      "呤": 809,
      "呦": 810,
      "周": 811,
      "呱": 812,
      "呲": 813,
      "味": 814,
      "呵": 815,
      "呸": 816,
      "呻": 817,
      "呼": 818,
      "命": 819,
      "咀": 820,
      "咂": 821,
      "咄": 822,
      "咆": 823,
      "咋": 824,
      "和": 825,
      "咎": 826,
      "咏": 827,
      "咐": 828,
      "咒": 829,
      "咔": 830,
      "咕": 831,
      "咖": 832,
      "咙": 833,
      "咚": 834,
      "咛": 835,
      "咝": 836,
      "咣": 837,
      "咤": 838,
      "咧": 839,
      "咨": 840,
      "咪": 841,
      "咫": 842,
      "咬": 843,
      "咯": 844,
      "咱": 845,
      "咳": 846,
      "咸": 847,
      "咻": 848,
      "咽": 849,
      "咿": 850,
      "哀": 851,
      "品": 852,
      "哄": 853,
      "哆": 854,
      "哇": 855,
      "哈": 856,
      "哉": 857,
      "响": 858,
      "哎": 859,
      "哏": 860,
      "哑": 861,
      "哒": 862,
      "哔": 863,
      "哗": 864,
      "哙": 865,
      "哝": 866,
      "哟": 867,
      "哥": 868,
      "哦": 869,
      "哧": 870,
      "哨": 871,
      "哩": 872,
      "哪": 873,
      "哭": 874,
      "哮": 875,
      "哲": 876,
      "哺": 877,
      "哼": 878,
      "哽": 879,
      "唁": 880,
      "唆": 881,
      "唇": 882,
      "唉": 883,
      "唏": 884,
      "唐": 885,
      "唔": 886,
      "唠": 887,
      "唤": 888,
      "唧": 889,
      "唬": 890,
      "售": 891,
      "唯": 892,
      "唰": 893,
      "唱": 894,
      "唾": 895,
      "啃": 896,
      "啄": 897,
      "商": 898,
      "啊": 899,
      "啐": 900,
      "啕": 901,
      "啜": 902,
      "啡": 903,
      "啤": 904,
      "啥": 905,
      "啦": 906,
      "啧": 907,
      "啪": 908,
      "啬": 909,
      "啰": 910,
      "啵": 911,
      "啷": 912,
      "啸": 913,
      "啻": 914,
      "啼": 915,
      "喀": 916,
      "喂": 917,
      "喃": 918,
      "善": 919,
      "喇": 920,
      "喉": 921,
      "喊": 922,
      "喋": 923,
      "喔": 924,
      "喘": 925,
      "喙": 926,
      "喜": 927,
      "喝": 928,
      "喟": 929,
      "喧": 930,
      "喱": 931,
      "喳": 932,
      "喵": 933,
      "喷": 934,
      "喻": 935,
      "喽": 936,
      "嗅": 937,
      "嗑": 938,
      "嗒": 939,
      "嗓": 940,
      "嗔": 941,
      "嗖": 942,
      "嗜": 943,
      "嗝": 944,
      "嗟": 945,
      "嗡": 946,
      "嗣": 947,
      "嗤": 948,
      "嗦": 949,
      "嗨": 950,
      "嗬": 951,
      "嗯": 952,
      "嗲": 953,
      "嗷": 954,
      "嗽": 955,
      "嘀": 956,
      "嘁": 957,
      "嘈": 958,
      "嘉": 959,
      "嘎": 960,
      "嘘": 961,
      "嘛": 962,
      "嘞": 963,
      "嘟": 964,
      "嘣": 965,
      "嘤": 966,
      "嘬": 967,
      "嘭": 968,
      "嘱": 969,
      "嘲": 970,
      "嘴": 971,
      "嘶": 972,
      "嘹": 973,
      "嘻": 974,
      "嘿": 975,
      "噌": 976,
      "噎": 977,
      "噔": 978,
      "噗": 979,
      "噘": 980,
      "噜": 981,
      "噢": 982,
      "噤": 983,
      "器": 984,
      "噩": 985,
      "噪": 986,
      "噫": 987,
      "噬": 988,
      "噻": 989,
      "噼": 990,
      "嚎": 991,
      "嚏": 992,
      "嚓": 993,
      "嚣": 994,
      "嚯": 995,
      "嚷": 996,
      "嚼": 997,
      "囊": 998,
      "囔": 999,
      "囚": 1000,
      "四": 1001,
      "回": 1002,
      "因": 1003,
      "囡": 1004,
      "团": 1005,
      "囤": 1006,
      "囧": 1007,
      "园": 1008,
      "困": 1009,
      "囱": 1010,
      "围": 1011,
      "固": 1012,
      "国": 1013,
      "图": 1014,
      "圃": 1015,
      "圆": 1016,
      "圈": 1017,
      "圜": 1018,
      "土": 1019,
      "圣": 1020,
      "在": 1021,
      "地": 1022,
      "场": 1023,
      "圾": 1024,
      "址": 1025,
      "坂": 1026,
      "均": 1027,
      "坊": 1028,
      "坍": 1029,
      "坎": 1030,
      "坏": 1031,
      "坐": 1032,
      "坑": 1033,
      "块": 1034,
      "坚": 1035,
      "坛": 1036,
      "坝": 1037,
      "坞": 1038,
      "坟": 1039,
      "坠": 1040,
      "坡": 1041,
      "坤": 1042,
      "坦": 1043,
      "坨": 1044,
      "坩": 1045,
      "坪": 1046,
      "坯": 1047,
      "坳": 1048,
      "垂": 1049,
      "垃": 1050,
      "垄": 1051,
      "型": 1052,
      "垒": 1053,
      "垢": 1054,
      "垣": 1055,
      "垩": 1056,
      "垫": 1057,
      "垮": 1058,
      "埂": 1059,
      "埃": 1060,
      "埋": 1061,
      "城": 1062,
      "埔": 1063,
      "埙": 1064,
      "埚": 1065,
      "域": 1066,
      "培": 1067,
      "基": 1068,
      "埼": 1069,
      "堂": 1070,
      "堆": 1071,
      "堑": 1072,
      "堕": 1073,
      "堡": 1074,
      "堤": 1075,
      "堪": 1076,
      "堵": 1077,
      "塌": 1078,
      "塑": 1079,
      "塔": 1080,
      "塘": 1081,
      "塞": 1082,
      "填": 1083,
      "境": 1084,
      "墅": 1085,
      "墓": 1086,
      "増": 1087,
      "墙": 1088,
      "增": 1089,
      "墟": 1090,
      "墨": 1091,
      "墩": 1092,
      "壁": 1093,
      "壑": 1094,
      "壕": 1095,
      "壤": 1096,
      "士": 1097,
      "壮": 1098,
      "声": 1099,
      "壳": 1100,
      "壶": 1101,
      "处": 1102,
      "备": 1103,
      "変": 1104,
      "复": 1105,
      "夏": 1106,
      "夔": 1107,
      "夕": 1108,
      "外": 1109,
      "夙": 1110,
      "多": 1111,
      "夜": 1112,
      "够": 1113,
      "夢": 1114,
      "大": 1115,
      "天": 1116,
      "太": 1117,
      "夫": 1118,
      "夭": 1119,
      "央": 1120,
      "夯": 1121,
      "失": 1122,
      "头": 1123,
      "夷": 1124,
      "夸": 1125,
      "夹": 1126,
      "夺": 1127,
      "奂": 1128,
      "奄": 1129,
      "奇": 1130,
      "奈": 1131,
      "奉": 1132,
      "奋": 1133,
      "奎": 1134,
      "奏": 1135,
      "契": 1136,
      "奔": 1137,
      "奕": 1138,
      "奖": 1139,
      "套": 1140,
      "奚": 1141,
      "奠": 1142,
      "奢": 1143,
      "奥": 1144,
      "女": 1145,
      "奴": 1146,
      "奶": 1147,
      "奸": 1148,
      "她": 1149,
      "好": 1150,
      "如": 1151,
      "妃": 1152,
      "妄": 1153,
      "妆": 1154,
      "妇": 1155,
      "妈": 1156,
      "妊": 1157,
      "妍": 1158,
      "妒": 1159,
      "妓": 1160,
      "妖": 1161,
      "妙": 1162,
      "妞": 1163,
      "妣": 1164,
      "妥": 1165,
      "妨": 1166,
      "妩": 1167,
      "妮": 1168,
      "妲": 1169,
      "妹": 1170,
      "妻": 1171,
      "妾": 1172,
      "姆": 1173,
      "始": 1174,
      "姐": 1175,
      "姑": 1176,
      "姓": 1177,
      "委": 1178,
      "姗": 1179,
      "姘": 1180,
      "姜": 1181,
      "姣": 1182,
      "姥": 1183,
      "姨": 1184,
      "姬": 1185,
      "姻": 1186,
      "姿": 1187,
      "威": 1188,
      "娃": 1189,
      "娅": 1190,
      "娆": 1191,
      "娇": 1192,
      "娉": 1193,
      "娑": 1194,
      "娓": 1195,
      "娘": 1196,
      "娜": 1197,
      "娟": 1198,
      "娠": 1199,
      "娩": 1200,
      "娱": 1201,
      "娲": 1202,
      "娴": 1203,
      "娶": 1204,
      "娼": 1205,
      "婀": 1206,
      "婆": 1207,
      "婉": 1208,
      "婊": 1209,
      "婚": 1210,
      "婢": 1211,
      "婪": 1212,
      "婴": 1213,
      "婶": 1214,
      "婷": 1215,
      "婿": 1216,
      "媒": 1217,
      "媚": 1218,
      "媛": 1219,
      "媲": 1220,
      "媳": 1221,
      "媾": 1222,
      "嫁": 1223,
      "嫂": 1224,
      "嫉": 1225,
      "嫌": 1226,
      "嫖": 1227,
      "嫣": 1228,
      "嫩": 1229,
      "嬉": 1230,
      "嬷": 1231,
      "孀": 1232,
      "子": 1233,
      "孔": 1234,
      "孕": 1235,
      "字": 1236,
      "存": 1237,
      "孙": 1238,
      "孚": 1239,
      "孜": 1240,
      "孝": 1241,
      "孟": 1242,
      "孢": 1243,
      "季": 1244,
      "孤": 1245,
      "学": 1246,
      "孩": 1247,
      "孪": 1248,
      "孱": 1249,
      "孵": 1250,
      "孺": 1251,
      "孽": 1252,
      "宁": 1253,
      "它": 1254,
      "宅": 1255,
      "宇": 1256,
      "守": 1257,
      "安": 1258,
      "宋": 1259,
      "完": 1260,
      "宏": 1261,
      "宕": 1262,
      "宗": 1263,
      "官": 1264,
      "宙": 1265,
      "定": 1266,
      "宛": 1267,
      "宜": 1268,
      "宝": 1269,
      "实": 1270,
      "宠": 1271,
      "审": 1272,
      "客": 1273,
      "宣": 1274,
      "室": 1275,
      "宦": 1276,
      "宪": 1277,
      "宫": 1278,
      "宮": 1279,
      "宰": 1280,
      "害": 1281,
      "宴": 1282,
      "宵": 1283,
      "家": 1284,
      "容": 1285,
      "宽": 1286,
      "宾": 1287,
      "宿": 1288,
      "寂": 1289,
      "寄": 1290,
      "寅": 1291,
      "密": 1292,
      "富": 1293,
      "寐": 1294,
      "寒": 1295,
      "寓": 1296,
      "寝": 1297,
      "寞": 1298,
      "察": 1299,
      "寡": 1300,
      "寥": 1301,
      "寨": 1302,
      "寰": 1303,
      "寸": 1304,
      "对": 1305,
      "寺": 1306,
      "寻": 1307,
      "导": 1308,
      "寿": 1309,
      "封": 1310,
      "射": 1311,
      "将": 1312,
      "尉": 1313,
      "尊": 1314,
      "小": 1315,
      "少": 1316,
      "尔": 1317,
      "尖": 1318,
      "尘": 1319,
      "尚": 1320,
      "尝": 1321,
      "尤": 1322,
      "尬": 1323,
      "就": 1324,
      "尴": 1325,
      "尸": 1326,
      "尺": 1327,
      "尼": 1328,
      "尽": 1329,
      "尾": 1330,
      "尿": 1331,
      "局": 1332,
      "屁": 1333,
      "层": 1334,
      "居": 1335,
      "屈": 1336,
      "屉": 1337,
      "届": 1338,
      "屋": 1339,
      "屌": 1340,
      "屎": 1341,
      "屏": 1342,
      "屐": 1343,
      "屑": 1344,
      "展": 1345,
      "属": 1346,
      "屠": 1347,
      "屡": 1348,
      "履": 1349,
      "屯": 1350,
      "山": 1351,
      "屹": 1352,
      "屿": 1353,
      "岁": 1354,
      "岂": 1355,
      "岌": 1356,
      "岐": 1357,
      "岑": 1358,
      "岔": 1359,
      "岖": 1360,
      "岗": 1361,
      "岚": 1362,
      "岛": 1363,
      "岩": 1364,
      "岬": 1365,
      "岭": 1366,
      "岳": 1367,
      "岸": 1368,
      "岿": 1369,
      "峋": 1370,
      "峙": 1371,
      "峡": 1372,
      "峥": 1373,
      "峦": 1374,
      "峨": 1375,
      "峭": 1376,
      "峰": 1377,
      "峻": 1378,
      "崇": 1379,
      "崎": 1380,
      "崔": 1381,
      "崖": 1382,
      "崛": 1383,
      "崩": 1384,
      "崭": 1385,
      "崴": 1386,
      "崽": 1387,
      "嵌": 1388,
      "嵘": 1389,
      "嵬": 1390,
      "嶙": 1391,
      "巅": 1392,
      "巍": 1393,
      "川": 1394,
      "州": 1395,
      "巡": 1396,
      "巢": 1397,
      "工": 1398,
      "左": 1399,
      "巧": 1400,
      "巨": 1401,
      "巩": 1402,
      "巫": 1403,
      "差": 1404,
      "己": 1405,
      "已": 1406,
      "巴": 1407,
      "巷": 1408,
      "巾": 1409,
      "币": 1410,
      "市": 1411,
      "布": 1412,
      "帅": 1413,
      "帆": 1414,
      "师": 1415,
      "希": 1416,
      "帐": 1417,
      "帔": 1418,
      "帕": 1419,
      "帖": 1420,
      "帘": 1421,
      "帚": 1422,
      "帛": 1423,
      "帜": 1424,
      "帝": 1425,
      "带": 1426,
      "帧": 1427,
      "席": 1428,
      "帮": 1429,
      "帰": 1430,
      "帷": 1431,
      "常": 1432,
      "帽": 1433,
      "幂": 1434,
      "幄": 1435,
      "幅": 1436,
      "幌": 1437,
      "幔": 1438,
      "幕": 1439,
      "幡": 1440,
      "幢": 1441,
      "干": 1442,
      "平": 1443,
      "年": 1444,
      "幵": 1445,
      "并": 1446,
      "幸": 1447,
      "幺": 1448,
      "幻": 1449,
      "幼": 1450,
      "幽": 1451,
      "广": 1452,
      "庄": 1453,
      "庆": 1454,
      "庇": 1455,
      "床": 1456,
      "序": 1457,
      "庐": 1458,
      "库": 1459,
      "应": 1460,
      "底": 1461,
      "庖": 1462,
      "店": 1463,
      "庙": 1464,
      "庚": 1465,
      "府": 1466,
      "庞": 1467,
      "废": 1468,
      "度": 1469,
      "座": 1470,
      "庭": 1471,
      "庶": 1472,
      "康": 1473,
      "庸": 1474,
      "廉": 1475,
      "廊": 1476,
      "廑": 1477,
      "廓": 1478,
      "廝": 1479,
      "延": 1480,
      "廷": 1481,
      "建": 1482,
      "廻": 1483,
      "廿": 1484,
      "开": 1485,
      "异": 1486,
      "弃": 1487,
      "弄": 1488,
      "弈": 1489,
      "弊": 1490,
      "弋": 1491,
      "式": 1492,
      "弑": 1493,
      "弓": 1494,
      "引": 1495,
      "弗": 1496,
      "弘": 1497,
      "弛": 1498,
      "弟": 1499,
      "张": 1500,
      "弥": 1501,
      "弦": 1502,
      "弧": 1503,
      "弩": 1504,
      "弭": 1505,
      "弯": 1506,
      "弱": 1507,
      "弹": 1508,
      "强": 1509,
      "归": 1510,
      "当": 1511,
      "录": 1512,
      "彗": 1513,
      "形": 1514,
      "彦": 1515,
      "彩": 1516,
      "彪": 1517,
      "彬": 1518,
      "彭": 1519,
      "彰": 1520,
      "影": 1521,
      "彷": 1522,
      "役": 1523,
      "彻": 1524,
      "彼": 1525,
      "往": 1526,
      "征": 1527,
      "径": 1528,
      "待": 1529,
      "很": 1530,
      "徊": 1531,
      "律": 1532,
      "後": 1533,
      "徐": 1534,
      "徒": 1535,
      "従": 1536,
      "徕": 1537,
      "得": 1538,
      "徘": 1539,
      "徙": 1540,
      "御": 1541,
      "徨": 1542,
      "循": 1543,
      "微": 1544,
      "德": 1545,
      "徽": 1546,
      "心": 1547,
      "必": 1548,
      "忆": 1549,
      "忌": 1550,
      "忍": 1551,
      "忏": 1552,
      "忐": 1553,
      "忑": 1554,
      "忒": 1555,
      "志": 1556,
      "忘": 1557,
      "忙": 1558,
      "忠": 1559,
      "忡": 1560,
      "忧": 1561,
      "忪": 1562,
      "快": 1563,
      "念": 1564,
      "忽": 1565,
      "忾": 1566,
      "忿": 1567,
      "怀": 1568,
      "态": 1569,
      "怂": 1570,
      "怄": 1571,
      "怅": 1572,
      "怆": 1573,
      "怎": 1574,
      "怒": 1575,
      "怔": 1576,
      "怕": 1577,
      "怖": 1578,
      "怜": 1579,
      "思": 1580,
      "怠": 1581,
      "怡": 1582,
      "急": 1583,
      "怦": 1584,
      "性": 1585,
      "怨": 1586,
      "怪": 1587,
      "怯": 1588,
      "总": 1589,
      "怼": 1590,
      "恃": 1591,
      "恋": 1592,
      "恍": 1593,
      "恐": 1594,
      "恒": 1595,
      "恕": 1596,
      "恙": 1597,
      "恢": 1598,
      "恣": 1599,
      "恤": 1600,
      "恨": 1601,
      "恩": 1602,
      "恪": 1603,
      "恫": 1604,
      "恬": 1605,
      "恭": 1606,
      "息": 1607,
      "恰": 1608,
      "恳": 1609,
      "恶": 1610,
      "恸": 1611,
      "恺": 1612,
      "恻": 1613,
      "恼": 1614,
      "恿": 1615,
      "悄": 1616,
      "悉": 1617,
      "悌": 1618,
      "悍": 1619,
      "悔": 1620,
      "悖": 1621,
      "悚": 1622,
      "悟": 1623,
      "悠": 1624,
      "患": 1625,
      "悦": 1626,
      "您": 1627,
      "悬": 1628,
      "悯": 1629,
      "悲": 1630,
      "悴": 1631,
      "悸": 1632,
      "悼": 1633,
      "情": 1634,
      "惆": 1635,
      "惊": 1636,
      "惋": 1637,
      "惑": 1638,
      "惕": 1639,
      "惘": 1640,
      "惚": 1641,
      "惜": 1642,
      "惟": 1643,
      "惠": 1644,
      "惦": 1645,
      "惧": 1646,
      "惨": 1647,
      "惩": 1648,
      "惫": 1649,
      "惬": 1650,
      "惭": 1651,
      "惮": 1652,
      "惯": 1653,
      "惰": 1654,
      "想": 1655,
      "惴": 1656,
      "惶": 1657,
      "惹": 1658,
      "惺": 1659,
      "愁": 1660,
      "愈": 1661,
      "愉": 1662,
      "愎": 1663,
      "意": 1664,
      "愕": 1665,
      "愚": 1666,
      "感": 1667,
      "愣": 1668,
      "愤": 1669,
      "愧": 1670,
      "愫": 1671,
      "愿": 1672,
      "慈": 1673,
      "慌": 1674,
      "慎": 1675,
      "慑": 1676,
      "慕": 1677,
      "慘": 1678,
      "慢": 1679,
      "慧": 1680,
      "慨": 1681,
      "慰": 1682,
      "慵": 1683,
      "慷": 1684,
      "憋": 1685,
      "憎": 1686,
      "憔": 1687,
      "憧": 1688,
      "憨": 1689,
      "憩": 1690,
      "憬": 1691,
      "憾": 1692,
      "懂": 1693,
      "懈": 1694,
      "懊": 1695,
      "懑": 1696,
      "懒": 1697,
      "懦": 1698,
      "懵": 1699,
      "懿": 1700,
      "戈": 1701,
      "戍": 1702,
      "戎": 1703,
      "戏": 1704,
      "成": 1705,
      "我": 1706,
      "戒": 1707,
      "戕": 1708,
      "或": 1709,
      "戗": 1710,
      "战": 1711,
      "戚": 1712,
      "戛": 1713,
      "戟": 1714,
      "截": 1715,
      "戮": 1716,
      "戳": 1717,
      "戴": 1718,
      "户": 1719,
      "戾": 1720,
      "房": 1721,
      "所": 1722,
      "扁": 1723,
      "扇": 1724,
      "扈": 1725,
      "扉": 1726,
      "手": 1727,
      "才": 1728,
      "扎": 1729,
      "扑": 1730,
      "扒": 1731,
      "打": 1732,
      "扔": 1733,
      "托": 1734,
      "扛": 1735,
      "扣": 1736,
      "执": 1737,
      "扩": 1738,
      "扫": 1739,
      "扬": 1740,
      "扭": 1741,
      "扮": 1742,
      "扯": 1743,
      "扰": 1744,
      "扳": 1745,
      "扶": 1746,
      "批": 1747,
      "扼": 1748,
      "找": 1749,
      "承": 1750,
      "技": 1751,
      "抄": 1752,
      "抆": 1753,
      "抉": 1754,
      "把": 1755,
      "抑": 1756,
      "抒": 1757,
      "抓": 1758,
      "投": 1759,
      "抖": 1760,
      "抗": 1761,
      "折": 1762,
      "抚": 1763,
      "抛": 1764,
      "抠": 1765,
      "抡": 1766,
      "抢": 1767,
      "护": 1768,
      "报": 1769,
      "抨": 1770,
      "披": 1771,
      "抬": 1772,
      "抱": 1773,
      "抵": 1774,
      "抹": 1775,
      "押": 1776,
      "抽": 1777,
      "抿": 1778,
      "拂": 1779,
      "拄": 1780,
      "担": 1781,
      "拆": 1782,
      "拇": 1783,
      "拈": 1784,
      "拉": 1785,
      "拌": 1786,
      "拍": 1787,
      "拎": 1788,
      "拐": 1789,
      "拒": 1790,
      "拓": 1791,
      "拔": 1792,
      "拖": 1793,
      "拗": 1794,
      "拘": 1795,
      "拙": 1796,
      "招": 1797,
      "拜": 1798,
      "拟": 1799,
      "拢": 1800,
      "拣": 1801,
      "拥": 1802,
      "拦": 1803,
      "拧": 1804,
      "拨": 1805,
      "择": 1806,
      "括": 1807,
      "拭": 1808,
      "拯": 1809,
      "拱": 1810,
      "拳": 1811,
      "拴": 1812,
      "拷": 1813,
      "拼": 1814,
      "拽": 1815,
      "拾": 1816,
      "拿": 1817,
      "持": 1818,
      "挂": 1819,
      "指": 1820,
      "按": 1821,
      "挎": 1822,
      "挑": 1823,
      "挖": 1824,
      "挚": 1825,
      "挛": 1826,
      "挞": 1827,
      "挟": 1828,
      "挠": 1829,
      "挡": 1830,
      "挣": 1831,
      "挤": 1832,
      "挥": 1833,
      "挨": 1834,
      "挪": 1835,
      "挫": 1836,
      "振": 1837,
      "挲": 1838,
      "挺": 1839,
      "挽": 1840,
      "捂": 1841,
      "捅": 1842,
      "捆": 1843,
      "捉": 1844,
      "捋": 1845,
      "捍": 1846,
      "捎": 1847,
      "捏": 1848,
      "捐": 1849,
      "捕": 1850,
      "捞": 1851,
      "损": 1852,
      "捡": 1853,
      "换": 1854,
      "捣": 1855,
      "捧": 1856,
      "捭": 1857,
      "据": 1858,
      "捶": 1859,
      "捷": 1860,
      "捺": 1861,
      "捻": 1862,
      "掀": 1863,
      "掂": 1864,
      "授": 1865,
      "掉": 1866,
      "掌": 1867,
      "掏": 1868,
      "掐": 1869,
      "排": 1870,
      "掖": 1871,
      "掘": 1872,
      "掠": 1873,
      "探": 1874,
      "掣": 1875,
      "接": 1876,
      "控": 1877,
      "推": 1878,
      "掩": 1879,
      "措": 1880,
      "掬": 1881,
      "掰": 1882,
      "掳": 1883,
      "掷": 1884,
      "掸": 1885,
      "掺": 1886,
      "揄": 1887,
      "揉": 1888,
      "揍": 1889,
      "描": 1890,
      "提": 1891,
      "插": 1892,
      "握": 1893,
      "揣": 1894,
      "揩": 1895,
      "揪": 1896,
      "揭": 1897,
      "援": 1898,
      "揶": 1899,
      "揽": 1900,
      "搀": 1901,
      "搁": 1902,
      "搂": 1903,
      "搅": 1904,
      "搏": 1905,
      "搐": 1906,
      "搓": 1907,
      "搔": 1908,
      "搜": 1909,
      "搞": 1910,
      "搡": 1911,
      "搬": 1912,
      "搭": 1913,
      "携": 1914,
      "摁": 1915,
      "摄": 1916,
      "摆": 1917,
      "摇": 1918,
      "摊": 1919,
      "摒": 1920,
      "摔": 1921,
      "摘": 1922,
      "摞": 1923,
      "摧": 1924,
      "摩": 1925,
      "摸": 1926,
      "摹": 1927,
      "撂": 1928,
      "撅": 1929,
      "撇": 1930,
      "撑": 1931,
      "撒": 1932,
      "撕": 1933,
      "撞": 1934,
      "撤": 1935,
      "撩": 1936,
      "撬": 1937,
      "播": 1938,
      "撮": 1939,
      "撰": 1940,
      "撵": 1941,
      "撸": 1942,
      "撼": 1943,
      "擀": 1944,
      "擂": 1945,
      "擅": 1946,
      "操": 1947,
      "擎": 1948,
      "擒": 1949,
      "擞": 1950,
      "擦": 1951,
      "攀": 1952,
      "攒": 1953,
      "攘": 1954,
      "攥": 1955,
      "攫": 1956,
      "支": 1957,
      "收": 1958,
      "改": 1959,
      "攻": 1960,
      "放": 1961,
      "政": 1962,
      "故": 1963,
      "效": 1964,
      "敌": 1965,
      "敏": 1966,
      "救": 1967,
      "敕": 1968,
      "教": 1969,
      "敛": 1970,
      "敝": 1971,
      "敞": 1972,
      "敢": 1973,
      "散": 1974,
      "敦": 1975,
      "敬": 1976,
      "数": 1977,
      "敲": 1978,
      "整": 1979,
      "敷": 1980,
      "文": 1981,
      "斋": 1982,
      "斐": 1983,
      "斑": 1984,
      "斓": 1985,
      "斗": 1986,
      "料": 1987,
      "斜": 1988,
      "斟": 1989,
      "斡": 1990,
      "斤": 1991,
      "斥": 1992,
      "斧": 1993,
      "斩": 1994,
      "断": 1995,
      "斯": 1996,
      "新": 1997,
      "方": 1998,
      "於": 1999,
      "施": 2000,
      "旁": 2001,
      "旅": 2002,
      "旋": 2003,
      "旌": 2004,
      "旎": 2005,
      "族": 2006,
      "旖": 2007,
      "旗": 2008,
      "无": 2009,
      "既": 2010,
      "日": 2011,
      "旦": 2012,
      "旧": 2013,
      "旨": 2014,
      "早": 2015,
      "旬": 2016,
      "旭": 2017,
      "旱": 2018,
      "时": 2019,
      "旷": 2020,
      "旸": 2021,
      "旺": 2022,
      "昂": 2023,
      "昆": 2024,
      "昊": 2025,
      "昌": 2026,
      "明": 2027,
      "昏": 2028,
      "易": 2029,
      "昔": 2030,
      "昙": 2031,
      "星": 2032,
      "映": 2033,
      "春": 2034,
      "昧": 2035,
      "昨": 2036,
      "昭": 2037,
      "是": 2038,
      "昵": 2039,
      "昼": 2040,
      "显": 2041,
      "晁": 2042,
      "晃": 2043,
      "晋": 2044,
      "晌": 2045,
      "晏": 2046,
      "晒": 2047,
      "晓": 2048,
      "晕": 2049,
      "晖": 2050,
      "晚": 2051,
      "晤": 2052,
      "晦": 2053,
      "晨": 2054,
      "普": 2055,
      "景": 2056,
      "晰": 2057,
      "晴": 2058,
      "晶": 2059,
      "智": 2060,
      "晾": 2061,
      "暂": 2062,
      "暄": 2063,
      "暇": 2064,
      "暌": 2065,
      "暑": 2066,
      "暖": 2067,
      "暗": 2068,
      "暝": 2069,
      "暧": 2070,
      "暮": 2071,
      "暴": 2072,
      "暹": 2073,
      "曈": 2074,
      "曙": 2075,
      "曜": 2076,
      "曝": 2077,
      "曦": 2078,
      "曰": 2079,
      "曲": 2080,
      "曳": 2081,
      "更": 2082,
      "曹": 2083,
      "曼": 2084,
      "曾": 2085,
      "替": 2086,
      "最": 2087,
      "月": 2088,
      "有": 2089,
      "朋": 2090,
      "服": 2091,
      "朔": 2092,
      "朕": 2093,
      "朗": 2094,
      "望": 2095,
      "朝": 2096,
      "期": 2097,
      "朦": 2098,
      "木": 2099,
      "未": 2100,
      "末": 2101,
      "本": 2102,
      "札": 2103,
      "术": 2104,
      "朱": 2105,
      "朴": 2106,
      "朵": 2107,
      "机": 2108,
      "朽": 2109,
      "杀": 2110,
      "杂": 2111,
      "权": 2112,
      "杆": 2113,
      "杈": 2114,
      "杉": 2115,
      "李": 2116,
      "杏": 2117,
      "材": 2118,
      "村": 2119,
      "杖": 2120,
      "杜": 2121,
      "杞": 2122,
      "束": 2123,
      "杠": 2124,
      "条": 2125,
      "来": 2126,
      "杨": 2127,
      "杭": 2128,
      "杯": 2129,
      "杰": 2130,
      "杳": 2131,
      "杵": 2132,
      "松": 2133,
      "板": 2134,
      "极": 2135,
      "构": 2136,
      "枉": 2137,
      "枋": 2138,
      "析": 2139,
      "枕": 2140,
      "林": 2141,
      "枚": 2142,
      "果": 2143,
      "枝": 2144,
      "枞": 2145,
      "枢": 2146,
      "枪": 2147,
      "枫": 2148,
      "枭": 2149,
      "枯": 2150,
      "架": 2151,
      "枷": 2152,
      "柄": 2153,
      "柏": 2154,
      "某": 2155,
      "柑": 2156,
      "染": 2157,
      "柔": 2158,
      "柚": 2159,
      "柜": 2160,
      "柠": 2161,
      "查": 2162,
      "柩": 2163,
      "柬": 2164,
      "柯": 2165,
      "柱": 2166,
      "柳": 2167,
      "柴": 2168,
      "査": 2169,
      "柿": 2170,
      "栅": 2171,
      "标": 2172,
      "栈": 2173,
      "栉": 2174,
      "栋": 2175,
      "栏": 2176,
      "树": 2177,
      "栓": 2178,
      "栖": 2179,
      "栗": 2180,
      "校": 2181,
      "栩": 2182,
      "株": 2183,
      "样": 2184,
      "核": 2185,
      "根": 2186,
      "格": 2187,
      "栽": 2188,
      "桀": 2189,
      "桂": 2190,
      "桃": 2191,
      "桅": 2192,
      "框": 2193,
      "案": 2194,
      "桌": 2195,
      "桎": 2196,
      "桐": 2197,
      "桑": 2198,
      "桓": 2199,
      "档": 2200,
      "桥": 2201,
      "桦": 2202,
      "桨": 2203,
      "桩": 2204,
      "桶": 2205,
      "梁": 2206,
      "梅": 2207,
      "梆": 2208,
      "梏": 2209,
      "梗": 2210,
      "梢": 2211,
      "梦": 2212,
      "梧": 2213,
      "梨": 2214,
      "梭": 2215,
      "梯": 2216,
      "械": 2217,
      "梳": 2218,
      "梵": 2219,
      "检": 2220,
      "棉": 2221,
      "棋": 2222,
      "棍": 2223,
      "棒": 2224,
      "棕": 2225,
      "棘": 2226,
      "棚": 2227,
      "棠": 2228,
      "森": 2229,
      "棱": 2230,
      "棵": 2231,
      "棺": 2232,
      "椁": 2233,
      "椅": 2234,
      "植": 2235,
      "椎": 2236,
      "椒": 2237,
      "椭": 2238,
      "椰": 2239,
      "椽": 2240,
      "楔": 2241,
      "楚": 2242,
      "楞": 2243,
      "楠": 2244,
      "楣": 2245,
      "楫": 2246,
      "楷": 2247,
      "楸": 2248,
      "楼": 2249,
      "概": 2250,
      "榄": 2251,
      "榆": 2252,
      "榉": 2253,
      "榔": 2254,
      "榛": 2255,
      "榜": 2256,
      "榧": 2257,
      "榨": 2258,
      "榴": 2259,
      "榷": 2260,
      "榻": 2261,
      "槁": 2262,
      "槌": 2263,
      "槐": 2264,
      "槛": 2265,
      "槟": 2266,
      "槭": 2267,
      "槲": 2268,
      "槽": 2269,
      "樊": 2270,
      "模": 2271,
      "樣": 2272,
      "横": 2273,
      "樯": 2274,
      "樱": 2275,
      "樽": 2276,
      "橄": 2277,
      "橇": 2278,
      "橘": 2279,
      "橙": 2280,
      "橡": 2281,
      "橱": 2282,
      "檀": 2283,
      "檐": 2284,
      "檫": 2285,
      "檬": 2286,
      "欠": 2287,
      "次": 2288,
      "欢": 2289,
      "欣": 2290,
      "欧": 2291,
      "欲": 2292,
      "欺": 2293,
      "款": 2294,
      "歃": 2295,
      "歇": 2296,
      "歉": 2297,
      "歌": 2298,
      "止": 2299,
      "正": 2300,
      "此": 2301,
      "步": 2302,
      "武": 2303,
      "歧": 2304,
      "歪": 2305,
      "歳": 2306,
      "歹": 2307,
      "死": 2308,
      "歼": 2309,
      "殃": 2310,
      "殆": 2311,
      "殉": 2312,
      "殊": 2313,
      "残": 2314,
      "殒": 2315,
      "殖": 2316,
      "殛": 2317,
      "殡": 2318,
      "殳": 2319,
      "殴": 2320,
      "段": 2321,
      "殷": 2322,
      "殿": 2323,
      "毁": 2324,
      "毂": 2325,
      "毅": 2326,
      "毋": 2327,
      "母": 2328,
      "毎": 2329,
      "每": 2330,
      "毒": 2331,
      "比": 2332,
      "毕": 2333,
      "毗": 2334,
      "毙": 2335,
      "毛": 2336,
      "毡": 2337,
      "毫": 2338,
      "毯": 2339,
      "氅": 2340,
      "氏": 2341,
      "民": 2342,
      "氓": 2343,
      "气": 2344,
      "氖": 2345,
      "氘": 2346,
      "氙": 2347,
      "氚": 2348,
      "氛": 2349,
      "氟": 2350,
      "氢": 2351,
      "氤": 2352,
      "氦": 2353,
      "氧": 2354,
      "氪": 2355,
      "氮": 2356,
      "氯": 2357,
      "氰": 2358,
      "氲": 2359,
      "水": 2360,
      "永": 2361,
      "汀": 2362,
      "汁": 2363,
      "求": 2364,
      "汇": 2365,
      "汉": 2366,
      "汐": 2367,
      "汗": 2368,
      "汝": 2369,
      "汞": 2370,
      "江": 2371,
      "池": 2372,
      "污": 2373,
      "汤": 2374,
      "汨": 2375,
      "汩": 2376,
      "汪": 2377,
      "汲": 2378,
      "汹": 2379,
      "汽": 2380,
      "沁": 2381,
      "沃": 2382,
      "沈": 2383,
      "沉": 2384,
      "沌": 2385,
      "沏": 2386,
      "沐": 2387,
      "沓": 2388,
      "沙": 2389,
      "沛": 2390,
      "沟": 2391,
      "没": 2392,
      "沥": 2393,
      "沦": 2394,
      "沧": 2395,
      "沫": 2396,
      "沮": 2397,
      "沱": 2398,
      "河": 2399,
      "沸": 2400,
      "油": 2401,
      "治": 2402,
      "沼": 2403,
      "沾": 2404,
      "沿": 2405,
      "泄": 2406,
      "泉": 2407,
      "泊": 2408,
      "泌": 2409,
      "泓": 2410,
      "泔": 2411,
      "法": 2412,
      "泛": 2413,
      "泞": 2414,
      "泡": 2415,
      "波": 2416,
      "泣": 2417,
      "泥": 2418,
      "注": 2419,
      "泪": 2420,
      "泫": 2421,
      "泯": 2422,
      "泰": 2423,
      "泳": 2424,
      "泵": 2425,
      "泻": 2426,
      "泼": 2427,
      "泽": 2428,
      "洁": 2429,
      "洄": 2430,
      "洋": 2431,
      "洌": 2432,
      "洒": 2433,
      "洗": 2434,
      "洛": 2435,
      "洞": 2436,
      "津": 2437,
      "洪": 2438,
      "洲": 2439,
      "活": 2440,
      "洼": 2441,
      "洽": 2442,
      "派": 2443,
      "流": 2444,
      "浃": 2445,
      "浄": 2446,
      "浅": 2447,
      "浆": 2448,
      "浇": 2449,
      "浊": 2450,
      "测": 2451,
      "济": 2452,
      "浏": 2453,
      "浑": 2454,
      "浒": 2455,
      "浓": 2456,
      "浚": 2457,
      "浣": 2458,
      "浦": 2459,
      "浩": 2460,
      "浪": 2461,
      "浮": 2462,
      "浴": 2463,
      "海": 2464,
      "浸": 2465,
      "涂": 2466,
      "涅": 2467,
      "消": 2468,
      "涉": 2469,
      "涌": 2470,
      "涎": 2471,
      "涓": 2472,
      "涕": 2473,
      "涛": 2474,
      "涝": 2475,
      "涟": 2476,
      "涡": 2477,
      "涣": 2478,
      "涤": 2479,
      "润": 2480,
      "涧": 2481,
      "涨": 2482,
      "涩": 2483,
      "涮": 2484,
      "涯": 2485,
      "液": 2486,
      "涵": 2487,
      "涸": 2488,
      "淀": 2489,
      "淅": 2490,
      "淆": 2491,
      "淇": 2492,
      "淋": 2493,
      "淌": 2494,
      "淑": 2495,
      "淘": 2496,
      "淡": 2497,
      "淤": 2498,
      "淫": 2499,
      "淬": 2500,
      "淮": 2501,
      "深": 2502,
      "淳": 2503,
      "混": 2504,
      "淸": 2505,
      "淹": 2506,
      "添": 2507,
      "淼": 2508,
      "清": 2509,
      "渊": 2510,
      "渍": 2511,
      "渎": 2512,
      "渐": 2513,
      "渔": 2514,
      "渗": 2515,
      "渟": 2516,
      "渠": 2517,
      "渡": 2518,
      "渣": 2519,
      "温": 2520,
      "港": 2521,
      "渲": 2522,
      "渴": 2523,
      "游": 2524,
      "渺": 2525,
      "湃": 2526,
      "湄": 2527,
      "湍": 2528,
      "湖": 2529,
      "湘": 2530,
      "湛": 2531,
      "湮": 2532,
      "湾": 2533,
      "湿": 2534,
      "溃": 2535,
      "溅": 2536,
      "溉": 2537,
      "源": 2538,
      "溜": 2539,
      "溢": 2540,
      "溧": 2541,
      "溪": 2542,
      "溯": 2543,
      "溶": 2544,
      "溺": 2545,
      "滂": 2546,
      "滋": 2547,
      "滑": 2548,
      "滓": 2549,
      "滔": 2550,
      "滚": 2551,
      "滞": 2552,
      "满": 2553,
      "滤": 2554,
      "滥": 2555,
      "滨": 2556,
      "滩": 2557,
      "滴": 2558,
      "漂": 2559,
      "漆": 2560,
      "漉": 2561,
      "漏": 2562,
      "漓": 2563,
      "演": 2564,
      "漠": 2565,
      "漩": 2566,
      "漪": 2567,
      "漫": 2568,
      "漱": 2569,
      "漾": 2570,
      "潇": 2571,
      "潘": 2572,
      "潜": 2573,
      "潦": 2574,
      "潭": 2575,
      "潮": 2576,
      "潸": 2577,
      "潺": 2578,
      "澄": 2579,
      "澈": 2580,
      "澎": 2581,
      "澜": 2582,
      "澡": 2583,
      "澳": 2584,
      "激": 2585,
      "濉": 2586,
      "濑": 2587,
      "濒": 2588,
      "濛": 2589,
      "瀑": 2590,
      "瀚": 2591,
      "瀛": 2592,
      "灌": 2593,
      "火": 2594,
      "灭": 2595,
      "灯": 2596,
      "灰": 2597,
      "灵": 2598,
      "灶": 2599,
      "灸": 2600,
      "灼": 2601,
      "灾": 2602,
      "灿": 2603,
      "炉": 2604,
      "炎": 2605,
      "炒": 2606,
      "炔": 2607,
      "炕": 2608,
      "炖": 2609,
      "炙": 2610,
      "炫": 2611,
      "炬": 2612,
      "炭": 2613,
      "炮": 2614,
      "炯": 2615,
      "炷": 2616,
      "炸": 2617,
      "点": 2618,
      "炼": 2619,
      "炽": 2620,
      "烁": 2621,
      "烂": 2622,
      "烈": 2623,
      "烊": 2624,
      "烕": 2625,
      "烘": 2626,
      "烙": 2627,
      "烛": 2628,
      "烟": 2629,
      "烤": 2630,
      "烦": 2631,
      "烧": 2632,
      "烩": 2633,
      "烫": 2634,
      "烬": 2635,
      "热": 2636,
      "烯": 2637,
      "烷": 2638,
      "烹": 2639,
      "烽": 2640,
      "焉": 2641,
      "焊": 2642,
      "焕": 2643,
      "焖": 2644,
      "焚": 2645,
      "焦": 2646,
      "焰": 2647,
      "然": 2648,
      "煅": 2649,
      "煌": 2650,
      "煎": 2651,
      "煞": 2652,
      "煤": 2653,
      "煦": 2654,
      "照": 2655,
      "煨": 2656,
      "煮": 2657,
      "煲": 2658,
      "煽": 2659,
      "熄": 2660,
      "熊": 2661,
      "熏": 2662,
      "熔": 2663,
      "熙": 2664,
      "熟": 2665,
      "熠": 2666,
      "熨": 2667,
      "熬": 2668,
      "燃": 2669,
      "燎": 2670,
      "燕": 2671,
      "燥": 2672,
      "燧": 2673,
      "爆": 2674,
      "爪": 2675,
      "爬": 2676,
      "爰": 2677,
      "爱": 2678,
      "爵": 2679,
      "父": 2680,
      "爷": 2681,
      "爸": 2682,
      "爹": 2683,
      "爻": 2684,
      "爽": 2685,
      "片": 2686,
      "版": 2687,
      "牌": 2688,
      "牒": 2689,
      "牙": 2690,
      "牛": 2691,
      "牟": 2692,
      "牡": 2693,
      "牢": 2694,
      "牧": 2695,
      "物": 2696,
      "牲": 2697,
      "牵": 2698,
      "特": 2699,
      "牺": 2700,
      "犀": 2701,
      "犁": 2702,
      "犄": 2703,
      "犊": 2704,
      "犍": 2705,
      "犟": 2706,
      "犬": 2707,
      "犯": 2708,
      "状": 2709,
      "犷": 2710,
      "犸": 2711,
      "犹": 2712,
      "狂": 2713,
      "狄": 2714,
      "狈": 2715,
      "狐": 2716,
      "狗": 2717,
      "狙": 2718,
      "狞": 2719,
      "狠": 2720,
      "狡": 2721,
      "狩": 2722,
      "独": 2723,
      "狭": 2724,
      "狮": 2725,
      "狰": 2726,
      "狱": 2727,
      "狷": 2728,
      "狸": 2729,
      "狼": 2730,
      "猎": 2731,
      "猛": 2732,
      "猜": 2733,
      "猝": 2734,
      "猥": 2735,
      "猩": 2736,
      "猪": 2737,
      "猫": 2738,
      "猬": 2739,
      "献": 2740,
      "猴": 2741,
      "猷": 2742,
      "猾": 2743,
      "猿": 2744,
      "獠": 2745,
      "獭": 2746,
      "玄": 2747,
      "率": 2748,
      "玉": 2749,
      "王": 2750,
      "玑": 2751,
      "玖": 2752,
      "玛": 2753,
      "玩": 2754,
      "玫": 2755,
      "环": 2756,
      "现": 2757,
      "玲": 2758,
      "玳": 2759,
      "玷": 2760,
      "玻": 2761,
      "珀": 2762,
      "珈": 2763,
      "珊": 2764,
      "珍": 2765,
      "珐": 2766,
      "珑": 2767,
      "珞": 2768,
      "珠": 2769,
      "珥": 2770,
      "班": 2771,
      "珰": 2772,
      "球": 2773,
      "琅": 2774,
      "理": 2775,
      "琉": 2776,
      "琐": 2777,
      "琢": 2778,
      "琥": 2779,
      "琳": 2780,
      "琴": 2781,
      "琵": 2782,
      "琶": 2783,
      "琼": 2784,
      "瑁": 2785,
      "瑕": 2786,
      "瑙": 2787,
      "瑚": 2788,
      "瑜": 2789,
      "瑞": 2790,
      "瑟": 2791,
      "瑠": 2792,
      "瑰": 2793,
      "瑶": 2794,
      "瑾": 2795,
      "璀": 2796,
      "璃": 2797,
      "璎": 2798,
      "璧": 2799,
      "璨": 2800,
      "瓜": 2801,
      "瓢": 2802,
      "瓣": 2803,
      "瓦": 2804,
      "瓮": 2805,
      "瓶": 2806,
      "瓷": 2807,
      "甄": 2808,
      "甘": 2809,
      "甚": 2810,
      "甜": 2811,
      "生": 2812,
      "甥": 2813,
      "用": 2814,
      "甩": 2815,
      "甫": 2816,
      "甬": 2817,
      "田": 2818,
      "由": 2819,
      "甲": 2820,
      "申": 2821,
      "电": 2822,
      "男": 2823,
      "甸": 2824,
      "町": 2825,
      "画": 2826,
      "畅": 2827,
      "界": 2828,
      "畎": 2829,
      "畏": 2830,
      "畔": 2831,
      "留": 2832,
      "畜": 2833,
      "略": 2834,
      "番": 2835,
      "畴": 2836,
      "畸": 2837,
      "疆": 2838,
      "疋": 2839,
      "疏": 2840,
      "疑": 2841,
      "疗": 2842,
      "疙": 2843,
      "疚": 2844,
      "疤": 2845,
      "疫": 2846,
      "疮": 2847,
      "疯": 2848,
      "疲": 2849,
      "疵": 2850,
      "疼": 2851,
      "疾": 2852,
      "痂": 2853,
      "病": 2854,
      "症": 2855,
      "痉": 2856,
      "痊": 2857,
      "痍": 2858,
      "痒": 2859,
      "痕": 2860,
      "痘": 2861,
      "痛": 2862,
      "痞": 2863,
      "痣": 2864,
      "痤": 2865,
      "痨": 2866,
      "痪": 2867,
      "痫": 2868,
      "痰": 2869,
      "痴": 2870,
      "痹": 2871,
      "瘁": 2872,
      "瘟": 2873,
      "瘠": 2874,
      "瘢": 2875,
      "瘦": 2876,
      "瘩": 2877,
      "瘪": 2878,
      "瘫": 2879,
      "瘴": 2880,
      "瘸": 2881,
      "瘾": 2882,
      "癌": 2883,
      "癔": 2884,
      "癖": 2885,
      "癞": 2886,
      "癫": 2887,
      "登": 2888,
      "白": 2889,
      "百": 2890,
      "皂": 2891,
      "的": 2892,
      "皆": 2893,
      "皇": 2894,
      "皈": 2895,
      "皎": 2896,
      "皑": 2897,
      "皓": 2898,
      "皙": 2899,
      "皮": 2900,
      "皱": 2901,
      "皲": 2902,
      "皴": 2903,
      "皿": 2904,
      "盅": 2905,
      "盆": 2906,
      "盈": 2907,
      "益": 2908,
      "盎": 2909,
      "盏": 2910,
      "盐": 2911,
      "监": 2912,
      "盒": 2913,
      "盔": 2914,
      "盖": 2915,
      "盗": 2916,
      "盘": 2917,
      "盛": 2918,
      "盟": 2919,
      "盥": 2920,
      "目": 2921,
      "盯": 2922,
      "盲": 2923,
      "直": 2924,
      "相": 2925,
      "盹": 2926,
      "盼": 2927,
      "盾": 2928,
      "省": 2929,
      "眉": 2930,
      "看": 2931,
      "真": 2932,
      "眠": 2933,
      "眦": 2934,
      "眨": 2935,
      "眩": 2936,
      "眬": 2937,
      "眯": 2938,
      "眶": 2939,
      "眷": 2940,
      "眸": 2941,
      "眺": 2942,
      "眼": 2943,
      "着": 2944,
      "睁": 2945,
      "睇": 2946,
      "睐": 2947,
      "睛": 2948,
      "睡": 2949,
      "督": 2950,
      "睥": 2951,
      "睦": 2952,
      "睨": 2953,
      "睫": 2954,
      "睬": 2955,
      "睹": 2956,
      "睽": 2957,
      "睿": 2958,
      "瞄": 2959,
      "瞅": 2960,
      "瞌": 2961,
      "瞎": 2962,
      "瞑": 2963,
      "瞒": 2964,
      "瞟": 2965,
      "瞠": 2966,
      "瞥": 2967,
      "瞧": 2968,
      "瞩": 2969,
      "瞪": 2970,
      "瞬": 2971,
      "瞭": 2972,
      "瞰": 2973,
      "瞳": 2974,
      "瞻": 2975,
      "矍": 2976,
      "矗": 2977,
      "矛": 2978,
      "矜": 2979,
      "矢": 2980,
      "矣": 2981,
      "知": 2982,
      "矩": 2983,
      "矫": 2984,
      "矬": 2985,
      "短": 2986,
      "矮": 2987,
      "石": 2988,
      "矶": 2989,
      "矾": 2990,
      "矿": 2991,
      "码": 2992,
      "砂": 2993,
      "砌": 2994,
      "砍": 2995,
      "砒": 2996,
      "研": 2997,
      "砖": 2998,
      "砚": 2999,
      "砣": 3000,
      "砥": 3001,
      "砧": 3002,
      "砰": 3003,
      "破": 3004,
      "砸": 3005,
      "砺": 3006,
      "砾": 3007,
      "础": 3008,
      "硅": 3009,
      "硌": 3010,
      "硎": 3011,
      "硕": 3012,
      "硝": 3013,
      "硫": 3014,
      "硬": 3015,
      "确": 3016,
      "碉": 3017,
      "碌": 3018,
      "碍": 3019,
      "碎": 3020,
      "碑": 3021,
      "碗": 3022,
      "碘": 3023,
      "碜": 3024,
      "碟": 3025,
      "碧": 3026,
      "碰": 3027,
      "碱": 3028,
      "碳": 3029,
      "碴": 3030,
      "碾": 3031,
      "磁": 3032,
      "磅": 3033,
      "磊": 3034,
      "磐": 3035,
      "磕": 3036,
      "磨": 3037,
      "磷": 3038,
      "磺": 3039,
      "礁": 3040,
      "礴": 3041,
      "示": 3042,
      "礼": 3043,
      "社": 3044,
      "祀": 3045,
      "祇": 3046,
      "祈": 3047,
      "祉": 3048,
      "祓": 3049,
      "祖": 3050,
      "祗": 3051,
      "祛": 3052,
      "祝": 3053,
      "神": 3054,
      "祟": 3055,
      "祠": 3056,
      "祥": 3057,
      "票": 3058,
      "祭": 3059,
      "祷": 3060,
      "祸": 3061,
      "禀": 3062,
      "禁": 3063,
      "禄": 3064,
      "禅": 3065,
      "福": 3066,
      "禧": 3067,
      "禹": 3068,
      "离": 3069,
      "禽": 3070,
      "秀": 3071,
      "私": 3072,
      "秃": 3073,
      "秉": 3074,
      "秋": 3075,
      "种": 3076,
      "科": 3077,
      "秒": 3078,
      "秘": 3079,
      "租": 3080,
      "秤": 3081,
      "秦": 3082,
      "秧": 3083,
      "秩": 3084,
      "积": 3085,
      "称": 3086,
      "移": 3087,
      "秽": 3088,
      "稀": 3089,
      "程": 3090,
      "稍": 3091,
      "税": 3092,
      "稚": 3093,
      "稠": 3094,
      "稣": 3095,
      "稳": 3096,
      "稻": 3097,
      "稼": 3098,
      "稽": 3099,
      "稿": 3100,
      "穆": 3101,
      "穗": 3102,
      "穴": 3103,
      "究": 3104,
      "穷": 3105,
      "穹": 3106,
      "空": 3107,
      "穿": 3108,
      "突": 3109,
      "窃": 3110,
      "窄": 3111,
      "窈": 3112,
      "窍": 3113,
      "窒": 3114,
      "窕": 3115,
      "窖": 3116,
      "窗": 3117,
      "窘": 3118,
      "窜": 3119,
      "窝": 3120,
      "窟": 3121,
      "窣": 3122,
      "窥": 3123,
      "窦": 3124,
      "窨": 3125,
      "窸": 3126,
      "窿": 3127,
      "立": 3128,
      "竖": 3129,
      "站": 3130,
      "竞": 3131,
      "竟": 3132,
      "章": 3133,
      "竣": 3134,
      "童": 3135,
      "竭": 3136,
      "端": 3137,
      "竹": 3138,
      "竿": 3139,
      "笃": 3140,
      "笆": 3141,
      "笈": 3142,
      "笋": 3143,
      "笏": 3144,
      "笑": 3145,
      "笔": 3146,
      "笙": 3147,
      "笛": 3148,
      "笞": 3149,
      "笠": 3150,
      "符": 3151,
      "笨": 3152,
      "第": 3153,
      "笺": 3154,
      "笼": 3155,
      "筅": 3156,
      "等": 3157,
      "筋": 3158,
      "筏": 3159,
      "筐": 3160,
      "筑": 3161,
      "筒": 3162,
      "答": 3163,
      "策": 3164,
      "筛": 3165,
      "筝": 3166,
      "筵": 3167,
      "筷": 3168,
      "筹": 3169,
      "签": 3170,
      "简": 3171,
      "箍": 3172,
      "箔": 3173,
      "算": 3174,
      "管": 3175,
      "箫": 3176,
      "箭": 3177,
      "箱": 3178,
      "箴": 3179,
      "篆": 3180,
      "篇": 3181,
      "篑": 3182,
      "篓": 3183,
      "篝": 3184,
      "篠": 3185,
      "篡": 3186,
      "篥": 3187,
      "篮": 3188,
      "篱": 3189,
      "篷": 3190,
      "簇": 3191,
      "簌": 3192,
      "簒": 3193,
      "簧": 3194,
      "簪": 3195,
      "簸": 3196,
      "簿": 3197,
      "籁": 3198,
      "籍": 3199,
      "米": 3200,
      "类": 3201,
      "籽": 3202,
      "粉": 3203,
      "粑": 3204,
      "粒": 3205,
      "粕": 3206,
      "粗": 3207,
      "粘": 3208,
      "粟": 3209,
      "粥": 3210,
      "粪": 3211,
      "粮": 3212,
      "粲": 3213,
      "粹": 3214,
      "粼": 3215,
      "粽": 3216,
      "精": 3217,
      "糅": 3218,
      "糊": 3219,
      "糕": 3220,
      "糖": 3221,
      "糗": 3222,
      "糙": 3223,
      "糟": 3224,
      "糠": 3225,
      "糨": 3226,
      "糯": 3227,
      "系": 3228,
      "糾": 3229,
      "紊": 3230,
      "素": 3231,
      "索": 3232,
      "紧": 3233,
      "紫": 3234,
      "累": 3235,
      "終": 3236,
      "絮": 3237,
      "縻": 3238,
      "繁": 3239,
      "纠": 3240,
      "纡": 3241,
      "红": 3242,
      "纣": 3243,
      "纤": 3244,
      "约": 3245,
      "级": 3246,
      "纨": 3247,
      "纪": 3248,
      "纬": 3249,
      "纯": 3250,
      "纰": 3251,
      "纱": 3252,
      "纲": 3253,
      "纳": 3254,
      "纵": 3255,
      "纷": 3256,
      "纸": 3257,
      "纹": 3258,
      "纺": 3259,
      "纽": 3260,
      "线": 3261,
      "练": 3262,
      "组": 3263,
      "绅": 3264,
      "细": 3265,
      "织": 3266,
      "终": 3267,
      "绊": 3268,
      "绍": 3269,
      "绎": 3270,
      "经": 3271,
      "绑": 3272,
      "绒": 3273,
      "结": 3274,
      "绔": 3275,
      "绕": 3276,
      "绘": 3277,
      "给": 3278,
      "绚": 3279,
      "络": 3280,
      "绝": 3281,
      "绞": 3282,
      "统": 3283,
      "绢": 3284,
      "绣": 3285,
      "继": 3286,
      "绩": 3287,
      "绪": 3288,
      "绫": 3289,
      "续": 3290,
      "绮": 3291,
      "绯": 3292,
      "绰": 3293,
      "绳": 3294,
      "维": 3295,
      "绵": 3296,
      "绶": 3297,
      "绷": 3298,
      "绸": 3299,
      "绺": 3300,
      "绻": 3301,
      "综": 3302,
      "绽": 3303,
      "绾": 3304,
      "绿": 3305,
      "缀": 3306,
      "缁": 3307,
      "缂": 3308,
      "缄": 3309,
      "缅": 3310,
      "缆": 3311,
      "缈": 3312,
      "缉": 3313,
      "缎": 3314,
      "缓": 3315,
      "缔": 3316,
      "缕": 3317,
      "编": 3318,
      "缘": 3319,
      "缚": 3320,
      "缛": 3321,
      "缜": 3322,
      "缝": 3323,
      "缠": 3324,
      "缥": 3325,
      "缦": 3326,
      "缨": 3327,
      "缩": 3328,
      "缪": 3329,
      "缭": 3330,
      "缮": 3331,
      "缰": 3332,
      "缱": 3333,
      "缴": 3334,
      "缸": 3335,
      "缺": 3336,
      "罂": 3337,
      "罄": 3338,
      "罐": 3339,
      "网": 3340,
      "罕": 3341,
      "罗": 3342,
      "罚": 3343,
      "罡": 3344,
      "罢": 3345,
      "罩": 3346,
      "罪": 3347,
      "置": 3348,
      "署": 3349,
      "羁": 3350,
      "羊": 3351,
      "美": 3352,
      "羔": 3353,
      "羚": 3354,
      "羞": 3355,
      "羡": 3356,
      "群": 3357,
      "羲": 3358,
      "羹": 3359,
      "羽": 3360,
      "翁": 3361,
      "翅": 3362,
      "翔": 3363,
      "翕": 3364,
      "翘": 3365,
      "翠": 3366,
      "翡": 3367,
      "翩": 3368,
      "翮": 3369,
      "翰": 3370,
      "翱": 3371,
      "翳": 3372,
      "翻": 3373,
      "翼": 3374,
      "耀": 3375,
      "老": 3376,
      "考": 3377,
      "耄": 3378,
      "者": 3379,
      "耋": 3380,
      "而": 3381,
      "耍": 3382,
      "耐": 3383,
      "耕": 3384,
      "耗": 3385,
      "耙": 3386,
      "耳": 3387,
      "耶": 3388,
      "耷": 3389,
      "耸": 3390,
      "耻": 3391,
      "耽": 3392,
      "耿": 3393,
      "聂": 3394,
      "聆": 3395,
      "聊": 3396,
      "聋": 3397,
      "职": 3398,
      "聒": 3399,
      "联": 3400,
      "聘": 3401,
      "聚": 3402,
      "聩": 3403,
      "聪": 3404,
      "肃": 3405,
      "肆": 3406,
      "肇": 3407,
      "肉": 3408,
      "肋": 3409,
      "肌": 3410,
      "肓": 3411,
      "肖": 3412,
      "肘": 3413,
      "肚": 3414,
      "肛": 3415,
      "肝": 3416,
      "肠": 3417,
      "股": 3418,
      "肢": 3419,
      "肤": 3420,
      "肥": 3421,
      "肩": 3422,
      "肪": 3423,
      "肮": 3424,
      "肯": 3425,
      "肱": 3426,
      "育": 3427,
      "肴": 3428,
      "肺": 3429,
      "肽": 3430,
      "肾": 3431,
      "肿": 3432,
      "胀": 3433,
      "胁": 3434,
      "胃": 3435,
      "胄": 3436,
      "胆": 3437,
      "背": 3438,
      "胎": 3439,
      "胖": 3440,
      "胚": 3441,
      "胛": 3442,
      "胜": 3443,
      "胞": 3444,
      "胡": 3445,
      "胤": 3446,
      "胧": 3447,
      "胫": 3448,
      "胯": 3449,
      "胳": 3450,
      "胴": 3451,
      "胶": 3452,
      "胸": 3453,
      "胺": 3454,
      "能": 3455,
      "脂": 3456,
      "脆": 3457,
      "脉": 3458,
      "脊": 3459,
      "脏": 3460,
      "脐": 3461,
      "脑": 3462,
      "脓": 3463,
      "脔": 3464,
      "脖": 3465,
      "脚": 3466,
      "脯": 3467,
      "脱": 3468,
      "脸": 3469,
      "脾": 3470,
      "腆": 3471,
      "腊": 3472,
      "腋": 3473,
      "腌": 3474,
      "腐": 3475,
      "腑": 3476,
      "腓": 3477,
      "腔": 3478,
      "腕": 3479,
      "腥": 3480,
      "腩": 3481,
      "腭": 3482,
      "腮": 3483,
      "腰": 3484,
      "腱": 3485,
      "腴": 3486,
      "腹": 3487,
      "腺": 3488,
      "腻": 3489,
      "腼": 3490,
      "腾": 3491,
      "腿": 3492,
      "膀": 3493,
      "膂": 3494,
      "膈": 3495,
      "膊": 3496,
      "膏": 3497,
      "膘": 3498,
      "膛": 3499,
      "膜": 3500,
      "膝": 3501,
      "膨": 3502,
      "膳": 3503,
      "膺": 3504,
      "臀": 3505,
      "臂": 3506,
      "臃": 3507,
      "臆": 3508,
      "臣": 3509,
      "自": 3510,
      "臭": 3511,
      "至": 3512,
      "致": 3513,
      "臻": 3514,
      "臼": 3515,
      "臾": 3516,
      "舀": 3517,
      "舅": 3518,
      "舆": 3519,
      "舌": 3520,
      "舍": 3521,
      "舐": 3522,
      "舒": 3523,
      "舔": 3524,
      "舜": 3525,
      "舞": 3526,
      "舟": 3527,
      "航": 3528,
      "舫": 3529,
      "般": 3530,
      "舰": 3531,
      "舱": 3532,
      "舵": 3533,
      "舶": 3534,
      "舷": 3535,
      "船": 3536,
      "艄": 3537,
      "艇": 3538,
      "艏": 3539,
      "艘": 3540,
      "艮": 3541,
      "良": 3542,
      "艰": 3543,
      "色": 3544,
      "艳": 3545,
      "艺": 3546,
      "艾": 3547,
      "节": 3548,
      "芋": 3549,
      "芒": 3550,
      "芙": 3551,
      "芜": 3552,
      "芝": 3553,
      "芥": 3554,
      "芦": 3555,
      "芬": 3556,
      "芭": 3557,
      "芯": 3558,
      "花": 3559,
      "芳": 3560,
      "芸": 3561,
      "芹": 3562,
      "芽": 3563,
      "苇": 3564,
      "苋": 3565,
      "苍": 3566,
      "苏": 3567,
      "苑": 3568,
      "苒": 3569,
      "苔": 3570,
      "苗": 3571,
      "苛": 3572,
      "苜": 3573,
      "苞": 3574,
      "苟": 3575,
      "若": 3576,
      "苦": 3577,
      "苯": 3578,
      "英": 3579,
      "苹": 3580,
      "茁": 3581,
      "茂": 3582,
      "范": 3583,
      "茄": 3584,
      "茅": 3585,
      "茎": 3586,
      "茜": 3587,
      "茧": 3588,
      "茨": 3589,
      "茫": 3590,
      "茬": 3591,
      "茱": 3592,
      "茴": 3593,
      "茵": 3594,
      "茶": 3595,
      "茸": 3596,
      "茹": 3597,
      "荀": 3598,
      "荆": 3599,
      "草": 3600,
      "荏": 3601,
      "荐": 3602,
      "荒": 3603,
      "荔": 3604,
      "荜": 3605,
      "荞": 3606,
      "荠": 3607,
      "荡": 3608,
      "荣": 3609,
      "荧": 3610,
      "荫": 3611,
      "药": 3612,
      "荷": 3613,
      "荻": 3614,
      "莅": 3615,
      "莉": 3616,
      "莎": 3617,
      "莓": 3618,
      "莞": 3619,
      "莫": 3620,
      "莱": 3621,
      "莲": 3622,
      "获": 3623,
      "莹": 3624,
      "莺": 3625,
      "莽": 3626,
      "菅": 3627,
      "菇": 3628,
      "菊": 3629,
      "菌": 3630,
      "菜": 3631,
      "菟": 3632,
      "菠": 3633,
      "菩": 3634,
      "菱": 3635,
      "菲": 3636,
      "萃": 3637,
      "萄": 3638,
      "萌": 3639,
      "萍": 3640,
      "萎": 3641,
      "萝": 3642,
      "萤": 3643,
      "营": 3644,
      "萦": 3645,
      "萧": 3646,
      "萨": 3647,
      "落": 3648,
      "葆": 3649,
      "著": 3650,
      "葛": 3651,
      "葡": 3652,
      "董": 3653,
      "葩": 3654,
      "葫": 3655,
      "葬": 3656,
      "葱": 3657,
      "葵": 3658,
      "葺": 3659,
      "蒂": 3660,
      "蒋": 3661,
      "蒙": 3662,
      "蒜": 3663,
      "蒲": 3664,
      "蒸": 3665,
      "蓄": 3666,
      "蓉": 3667,
      "蓝": 3668,
      "蓦": 3669,
      "蓧": 3670,
      "蓬": 3671,
      "蓽": 3672,
      "蓿": 3673,
      "蔑": 3674,
      "蔓": 3675,
      "蔗": 3676,
      "蔫": 3677,
      "蔬": 3678,
      "蔷": 3679,
      "蔻": 3680,
      "蔼": 3681,
      "蔽": 3682,
      "蕉": 3683,
      "蕊": 3684,
      "蕴": 3685,
      "蕾": 3686,
      "薄": 3687,
      "薇": 3688,
      "薛": 3689,
      "薪": 3690,
      "薯": 3691,
      "薰": 3692,
      "藉": 3693,
      "藏": 3694,
      "藓": 3695,
      "藕": 3696,
      "藤": 3697,
      "藩": 3698,
      "藻": 3699,
      "蘑": 3700,
      "蘸": 3701,
      "虎": 3702,
      "虏": 3703,
      "虐": 3704,
      "虑": 3705,
      "虔": 3706,
      "虚": 3707,
      "虞": 3708,
      "虢": 3709,
      "虫": 3710,
      "虬": 3711,
      "虹": 3712,
      "虽": 3713,
      "虾": 3714,
      "蚀": 3715,
      "蚁": 3716,
      "蚂": 3717,
      "蚊": 3718,
      "蚌": 3719,
      "蚍": 3720,
      "蚓": 3721,
      "蚕": 3722,
      "蚣": 3723,
      "蚤": 3724,
      "蚩": 3725,
      "蚪": 3726,
      "蚯": 3727,
      "蚺": 3728,
      "蛀": 3729,
      "蛆": 3730,
      "蛇": 3731,
      "蛊": 3732,
      "蛋": 3733,
      "蛎": 3734,
      "蛔": 3735,
      "蛙": 3736,
      "蛛": 3737,
      "蛟": 3738,
      "蛤": 3739,
      "蛭": 3740,
      "蛮": 3741,
      "蛰": 3742,
      "蛳": 3743,
      "蛹": 3744,
      "蛾": 3745,
      "蜀": 3746,
      "蜂": 3747,
      "蜃": 3748,
      "蜇": 3749,
      "蜈": 3750,
      "蜉": 3751,
      "蜒": 3752,
      "蜓": 3753,
      "蜕": 3754,
      "蜗": 3755,
      "蜘": 3756,
      "蜜": 3757,
      "蜡": 3758,
      "蜥": 3759,
      "蜮": 3760,
      "蜴": 3761,
      "蜷": 3762,
      "蜻": 3763,
      "蜿": 3764,
      "蝇": 3765,
      "蝉": 3766,
      "蝌": 3767,
      "蝎": 3768,
      "蝙": 3769,
      "蝠": 3770,
      "蝮": 3771,
      "蝰": 3772,
      "蝴": 3773,
      "蝶": 3774,
      "蝼": 3775,
      "蝾": 3776,
      "螂": 3777,
      "螃": 3778,
      "螈": 3779,
      "融": 3780,
      "螣": 3781,
      "螳": 3782,
      "螺": 3783,
      "蟀": 3784,
      "蟆": 3785,
      "蟋": 3786,
      "蟑": 3787,
      "蟒": 3788,
      "蟠": 3789,
      "蟥": 3790,
      "蟹": 3791,
      "蠓": 3792,
      "蠕": 3793,
      "蠢": 3794,
      "血": 3795,
      "衅": 3796,
      "行": 3797,
      "衍": 3798,
      "衔": 3799,
      "街": 3800,
      "衙": 3801,
      "衡": 3802,
      "衣": 3803,
      "补": 3804,
      "表": 3805,
      "衩": 3806,
      "衫": 3807,
      "衬": 3808,
      "衰": 3809,
      "衲": 3810,
      "衷": 3811,
      "衹": 3812,
      "袁": 3813,
      "袄": 3814,
      "袅": 3815,
      "袈": 3816,
      "袋": 3817,
      "袍": 3818,
      "袒": 3819,
      "袖": 3820,
      "袜": 3821,
      "袢": 3822,
      "袤": 3823,
      "被": 3824,
      "袭": 3825,
      "袱": 3826,
      "袴": 3827,
      "裁": 3828,
      "裂": 3829,
      "装": 3830,
      "裆": 3831,
      "裔": 3832,
      "裕": 3833,
      "裘": 3834,
      "裙": 3835,
      "裟": 3836,
      "裤": 3837,
      "裳": 3838,
      "裸": 3839,
      "裹": 3840,
      "裾": 3841,
      "褂": 3842,
      "褐": 3843,
      "褒": 3844,
      "褛": 3845,
      "褥": 3846,
      "褪": 3847,
      "褴": 3848,
      "褶": 3849,
      "襄": 3850,
      "襟": 3851,
      "襦": 3852,
      "西": 3853,
      "要": 3854,
      "覆": 3855,
      "見": 3856,
      "覦": 3857,
      "见": 3858,
      "观": 3859,
      "规": 3860,
      "觅": 3861,
      "视": 3862,
      "览": 3863,
      "觉": 3864,
      "觊": 3865,
      "觎": 3866,
      "觐": 3867,
      "觑": 3868,
      "角": 3869,
      "解": 3870,
      "触": 3871,
      "言": 3872,
      "詹": 3873,
      "誉": 3874,
      "誓": 3875,
      "警": 3876,
      "譬": 3877,
      "计": 3878,
      "订": 3879,
      "认": 3880,
      "讥": 3881,
      "讧": 3882,
      "讨": 3883,
      "让": 3884,
      "讪": 3885,
      "训": 3886,
      "议": 3887,
      "讯": 3888,
      "记": 3889,
      "讲": 3890,
      "讳": 3891,
      "讶": 3892,
      "讷": 3893,
      "许": 3894,
      "讹": 3895,
      "论": 3896,
      "讼": 3897,
      "讽": 3898,
      "设": 3899,
      "访": 3900,
      "诀": 3901,
      "证": 3902,
      "诃": 3903,
      "评": 3904,
      "诅": 3905,
      "识": 3906,
      "诈": 3907,
      "诉": 3908,
      "诊": 3909,
      "词": 3910,
      "诏": 3911,
      "译": 3912,
      "诓": 3913,
      "试": 3914,
      "诗": 3915,
      "诚": 3916,
      "诛": 3917,
      "话": 3918,
      "诞": 3919,
      "诠": 3920,
      "诡": 3921,
      "询": 3922,
      "诣": 3923,
      "该": 3924,
      "详": 3925,
      "诧": 3926,
      "诨": 3927,
      "诩": 3928,
      "诫": 3929,
      "诬": 3930,
      "语": 3931,
      "诮": 3932,
      "误": 3933,
      "诱": 3934,
      "诲": 3935,
      "诳": 3936,
      "说": 3937,
      "诵": 3938,
      "诶": 3939,
      "请": 3940,
      "诸": 3941,
      "诺": 3942,
      "读": 3943,
      "诽": 3944,
      "课": 3945,
      "诿": 3946,
      "谀": 3947,
      "谁": 3948,
      "调": 3949,
      "谄": 3950,
      "谅": 3951,
      "谆": 3952,
      "谈": 3953,
      "谊": 3954,
      "谋": 3955,
      "谍": 3956,
      "谎": 3957,
      "谏": 3958,
      "谐": 3959,
      "谑": 3960,
      "谒": 3961,
      "谓": 3962,
      "谔": 3963,
      "谕": 3964,
      "谙": 3965,
      "谚": 3966,
      "谛": 3967,
      "谜": 3968,
      "谢": 3969,
      "谣": 3970,
      "谦": 3971,
      "谧": 3972,
      "谨": 3973,
      "谬": 3974,
      "谭": 3975,
      "谱": 3976,
      "谲": 3977,
      "谴": 3978,
      "谷": 3979,
      "豁": 3980,
      "豆": 3981,
      "豌": 3982,
      "豚": 3983,
      "象": 3984,
      "豢": 3985,
      "豪": 3986,
      "豫": 3987,
      "豹": 3988,
      "豺": 3989,
      "貂": 3990,
      "貉": 3991,
      "貌": 3992,
      "貘": 3993,
      "贏": 3994,
      "贝": 3995,
      "贞": 3996,
      "负": 3997,
      "贡": 3998,
      "财": 3999,
      "责": 4000,
      "贤": 4001,
      "败": 4002,
      "账": 4003,
      "货": 4004,
      "质": 4005,
      "贩": 4006,
      "贪": 4007,
      "贫": 4008,
      "贬": 4009,
      "购": 4010,
      "贯": 4011,
      "贰": 4012,
      "贱": 4013,
      "贲": 4014,
      "贴": 4015,
      "贵": 4016,
      "贷": 4017,
      "贸": 4018,
      "费": 4019,
      "贺": 4020,
      "贼": 4021,
      "贾": 4022,
      "贿": 4023,
      "赁": 4024,
      "赂": 4025,
      "赃": 4026,
      "资": 4027,
      "赅": 4028,
      "赈": 4029,
      "赋": 4030,
      "赌": 4031,
      "赎": 4032,
      "赏": 4033,
      "赐": 4034,
      "赔": 4035,
      "赖": 4036,
      "赘": 4037,
      "赚": 4038,
      "赛": 4039,
      "赝": 4040,
      "赞": 4041,
      "赠": 4042,
      "赡": 4043,
      "赢": 4044,
      "赤": 4045,
      "赦": 4046,
      "赧": 4047,
      "赫": 4048,
      "赭": 4049,
      "走": 4050,
      "赳": 4051,
      "赴": 4052,
      "赵": 4053,
      "赶": 4054,
      "起": 4055,
      "趁": 4056,
      "趄": 4057,
      "超": 4058,
      "越": 4059,
      "趋": 4060,
      "趔": 4061,
      "趟": 4062,
      "趣": 4063,
      "足": 4064,
      "趴": 4065,
      "趸": 4066,
      "趾": 4067,
      "跃": 4068,
      "跄": 4069,
      "跆": 4070,
      "跋": 4071,
      "跌": 4072,
      "跎": 4073,
      "跑": 4074,
      "跚": 4075,
      "跛": 4076,
      "距": 4077,
      "跟": 4078,
      "跤": 4079,
      "跨": 4080,
      "跪": 4081,
      "路": 4082,
      "跳": 4083,
      "践": 4084,
      "跶": 4085,
      "跷": 4086,
      "跺": 4087,
      "跻": 4088,
      "踉": 4089,
      "踊": 4090,
      "踌": 4091,
      "踏": 4092,
      "踝": 4093,
      "踞": 4094,
      "踢": 4095,
      "踩": 4096,
      "踪": 4097,
      "踮": 4098,
      "踱": 4099,
      "踵": 4100,
      "踹": 4101,
      "蹄": 4102,
      "蹈": 4103,
      "蹉": 4104,
      "蹊": 4105,
      "蹑": 4106,
      "蹒": 4107,
      "蹙": 4108,
      "蹦": 4109,
      "蹩": 4110,
      "蹬": 4111,
      "蹭": 4112,
      "蹲": 4113,
      "蹼": 4114,
      "蹿": 4115,
      "躁": 4116,
      "躇": 4117,
      "身": 4118,
      "躬": 4119,
      "躯": 4120,
      "躲": 4121,
      "躺": 4122,
      "车": 4123,
      "轧": 4124,
      "轨": 4125,
      "轩": 4126,
      "转": 4127,
      "轮": 4128,
      "软": 4129,
      "轰": 4130,
      "轲": 4131,
      "轴": 4132,
      "轶": 4133,
      "轻": 4134,
      "轼": 4135,
      "载": 4136,
      "轿": 4137,
      "较": 4138,
      "辄": 4139,
      "辅": 4140,
      "辆": 4141,
      "辇": 4142,
      "辈": 4143,
      "辉": 4144,
      "辍": 4145,
      "辎": 4146,
      "辐": 4147,
      "辑": 4148,
      "输": 4149,
      "辕": 4150,
      "辖": 4151,
      "辗": 4152,
      "辘": 4153,
      "辙": 4154,
      "辛": 4155,
      "辜": 4156,
      "辞": 4157,
      "辟": 4158,
      "辣": 4159,
      "辨": 4160,
      "辩": 4161,
      "辫": 4162,
      "辰": 4163,
      "辱": 4164,
      "边": 4165,
      "辽": 4166,
      "达": 4167,
      "迁": 4168,
      "迂": 4169,
      "迄": 4170,
      "迅": 4171,
      "过": 4172,
      "迈": 4173,
      "迎": 4174,
      "运": 4175,
      "近": 4176,
      "返": 4177,
      "还": 4178,
      "这": 4179,
      "进": 4180,
      "远": 4181,
      "违": 4182,
      "连": 4183,
      "迟": 4184,
      "迢": 4185,
      "迥": 4186,
      "迦": 4187,
      "迪": 4188,
      "迫": 4189,
      "迭": 4190,
      "述": 4191,
      "迷": 4192,
      "迸": 4193,
      "迹": 4194,
      "追": 4195,
      "退": 4196,
      "送": 4197,
      "适": 4198,
      "逃": 4199,
      "逄": 4200,
      "逅": 4201,
      "逆": 4202,
      "选": 4203,
      "逊": 4204,
      "透": 4205,
      "逐": 4206,
      "逑": 4207,
      "递": 4208,
      "途": 4209,
      "逗": 4210,
      "通": 4211,
      "逛": 4212,
      "逝": 4213,
      "逞": 4214,
      "速": 4215,
      "造": 4216,
      "逡": 4217,
      "逢": 4218,
      "逮": 4219,
      "逸": 4220,
      "逻": 4221,
      "逼": 4222,
      "逾": 4223,
      "遁": 4224,
      "遂": 4225,
      "遇": 4226,
      "遍": 4227,
      "遏": 4228,
      "遐": 4229,
      "遒": 4230,
      "道": 4231,
      "遗": 4232,
      "遛": 4233,
      "遢": 4234,
      "遣": 4235,
      "遥": 4236,
      "遨": 4237,
      "遭": 4238,
      "遮": 4239,
      "遴": 4240,
      "遵": 4241,
      "避": 4242,
      "邀": 4243,
      "邂": 4244,
      "邃": 4245,
      "邋": 4246,
      "邑": 4247,
      "邛": 4248,
      "邢": 4249,
      "那": 4250,
      "邦": 4251,
      "邪": 4252,
      "邮": 4253,
      "邵": 4254,
      "邸": 4255,
      "邻": 4256,
      "郁": 4257,
      "郊": 4258,
      "郎": 4259,
      "郑": 4260,
      "郡": 4261,
      "部": 4262,
      "郭": 4263,
      "都": 4264,
      "鄙": 4265,
      "酋": 4266,
      "酌": 4267,
      "配": 4268,
      "酒": 4269,
      "酗": 4270,
      "酚": 4271,
      "酝": 4272,
      "酡": 4273,
      "酣": 4274,
      "酥": 4275,
      "酩": 4276,
      "酪": 4277,
      "酬": 4278,
      "酮": 4279,
      "酯": 4280,
      "酰": 4281,
      "酱": 4282,
      "酵": 4283,
      "酷": 4284,
      "酸": 4285,
      "酽": 4286,
      "酿": 4287,
      "醇": 4288,
      "醉": 4289,
      "醋": 4290,
      "醍": 4291,
      "醐": 4292,
      "醒": 4293,
      "醺": 4294,
      "釆": 4295,
      "采": 4296,
      "釉": 4297,
      "释": 4298,
      "里": 4299,
      "重": 4300,
      "野": 4301,
      "量": 4302,
      "金": 4303,
      "釜": 4304,
      "鉴": 4305,
      "銮": 4306,
      "鎏": 4307,
      "鏖": 4308,
      "针": 4309,
      "钉": 4310,
      "钎": 4311,
      "钓": 4312,
      "钗": 4313,
      "钙": 4314,
      "钛": 4315,
      "钝": 4316,
      "钞": 4317,
      "钟": 4318,
      "钠": 4319,
      "钢": 4320,
      "钤": 4321,
      "钥": 4322,
      "钦": 4323,
      "钧": 4324,
      "钨": 4325,
      "钩": 4326,
      "钮": 4327,
      "钱": 4328,
      "钳": 4329,
      "钵": 4330,
      "钻": 4331,
      "钼": 4332,
      "钾": 4333,
      "铀": 4334,
      "铁": 4335,
      "铂": 4336,
      "铃": 4337,
      "铄": 4338,
      "铅": 4339,
      "铆": 4340,
      "铍": 4341,
      "铐": 4342,
      "铛": 4343,
      "铜": 4344,
      "铝": 4345,
      "铠": 4346,
      "铡": 4347,
      "铢": 4348,
      "铤": 4349,
      "铬": 4350,
      "铭": 4351,
      "铮": 4352,
      "铰": 4353,
      "铲": 4354,
      "铳": 4355,
      "银": 4356,
      "铷": 4357,
      "铸": 4358,
      "铺": 4359,
      "链": 4360,
      "铿": 4361,
      "销": 4362,
      "锁": 4363,
      "锂": 4364,
      "锃": 4365,
      "锄": 4366,
      "锅": 4367,
      "锆": 4368,
      "锈": 4369,
      "锋": 4370,
      "锏": 4371,
      "锐": 4372,
      "错": 4373,
      "锚": 4374,
      "锡": 4375,
      "锢": 4376,
      "锣": 4377,
      "锤": 4378,
      "锥": 4379,
      "锦": 4380,
      "锨": 4381,
      "锪": 4382,
      "锭": 4383,
      "键": 4384,
      "锯": 4385,
      "锰": 4386,
      "锱": 4387,
      "锵": 4388,
      "锹": 4389,
      "锻": 4390,
      "镀": 4391,
      "镁": 4392,
      "镂": 4393,
      "镇": 4394,
      "镉": 4395,
      "镊": 4396,
      "镌": 4397,
      "镐": 4398,
      "镑": 4399,
      "镖": 4400,
      "镜": 4401,
      "镡": 4402,
      "镣": 4403,
      "镭": 4404,
      "镯": 4405,
      "镰": 4406,
      "镳": 4407,
      "镶": 4408,
      "长": 4409,
      "门": 4410,
      "闪": 4411,
      "闭": 4412,
      "问": 4413,
      "闯": 4414,
      "闲": 4415,
      "间": 4416,
      "闷": 4417,
      "闸": 4418,
      "闹": 4419,
      "闺": 4420,
      "闻": 4421,
      "闽": 4422,
      "阀": 4423,
      "阁": 4424,
      "阂": 4425,
      "阄": 4426,
      "阅": 4427,
      "阈": 4428,
      "阉": 4429,
      "阎": 4430,
      "阐": 4431,
      "阑": 4432,
      "阔": 4433,
      "阖": 4434,
      "队": 4435,
      "阪": 4436,
      "阱": 4437,
      "防": 4438,
      "阳": 4439,
      "阴": 4440,
      "阵": 4441,
      "阶": 4442,
      "阻": 4443,
      "阿": 4444,
      "陀": 4445,
      "附": 4446,
      "际": 4447,
      "陆": 4448,
      "陈": 4449,
      "陋": 4450,
      "陌": 4451,
      "降": 4452,
      "限": 4453,
      "陕": 4454,
      "陛": 4455,
      "陡": 4456,
      "院": 4457,
      "除": 4458,
      "陨": 4459,
      "险": 4460,
      "陪": 4461,
      "陵": 4462,
      "陶": 4463,
      "陷": 4464,
      "隆": 4465,
      "随": 4466,
      "隐": 4467,
      "隔": 4468,
      "隘": 4469,
      "隙": 4470,
      "障": 4471,
      "隧": 4472,
      "隶": 4473,
      "隼": 4474,
      "隽": 4475,
      "难": 4476,
      "雀": 4477,
      "雁": 4478,
      "雄": 4479,
      "雅": 4480,
      "集": 4481,
      "雇": 4482,
      "雉": 4483,
      "雌": 4484,
      "雍": 4485,
      "雏": 4486,
      "雕": 4487,
      "雨": 4488,
      "雪": 4489,
      "雯": 4490,
      "雳": 4491,
      "零": 4492,
      "雷": 4493,
      "雹": 4494,
      "雾": 4495,
      "需": 4496,
      "霄": 4497,
      "霆": 4498,
      "震": 4499,
      "霉": 4500,
      "霍": 4501,
      "霓": 4502,
      "霖": 4503,
      "霜": 4504,
      "霞": 4505,
      "霰": 4506,
      "露": 4507,
      "霸": 4508,
      "霹": 4509,
      "霾": 4510,
      "青": 4511,
      "靓": 4512,
      "靖": 4513,
      "静": 4514,
      "靛": 4515,
      "非": 4516,
      "靠": 4517,
      "靡": 4518,
      "面": 4519,
      "靥": 4520,
      "革": 4521,
      "靴": 4522,
      "靶": 4523,
      "靼": 4524,
      "鞋": 4525,
      "鞍": 4526,
      "鞑": 4527,
      "鞘": 4528,
      "鞠": 4529,
      "鞭": 4530,
      "鞯": 4531,
      "韦": 4532,
      "韧": 4533,
      "韩": 4534,
      "韭": 4535,
      "音": 4536,
      "韵": 4537,
      "韶": 4538,
      "順": 4539,
      "页": 4540,
      "顶": 4541,
      "顷": 4542,
      "项": 4543,
      "顺": 4544,
      "须": 4545,
      "顽": 4546,
      "顾": 4547,
      "顿": 4548,
      "颀": 4549,
      "颁": 4550,
      "颂": 4551,
      "预": 4552,
      "颅": 4553,
      "领": 4554,
      "颇": 4555,
      "颈": 4556,
      "颊": 4557,
      "颌": 4558,
      "颏": 4559,
      "颐": 4560,
      "频": 4561,
      "颓": 4562,
      "颔": 4563,
      "颖": 4564,
      "颗": 4565,
      "题": 4566,
      "颚": 4567,
      "颜": 4568,
      "额": 4569,
      "颠": 4570,
      "颤": 4571,
      "颧": 4572,
      "风": 4573,
      "飒": 4574,
      "飓": 4575,
      "飘": 4576,
      "飙": 4577,
      "飚": 4578,
      "飞": 4579,
      "食": 4580,
      "飨": 4581,
      "餐": 4582,
      "餮": 4583,
      "饕": 4584,
      "饥": 4585,
      "饪": 4586,
      "饬": 4587,
      "饭": 4588,
      "饮": 4589,
      "饯": 4590,
      "饰": 4591,
      "饱": 4592,
      "饲": 4593,
      "饵": 4594,
      "饶": 4595,
      "饺": 4596,
      "饼": 4597,
      "饿": 4598,
      "馁": 4599,
      "馅": 4600,
      "馆": 4601,
      "馈": 4602,
      "馊": 4603,
      "馋": 4604,
      "馍": 4605,
      "馏": 4606,
      "馒": 4607,
      "馕": 4608,
      "首": 4609,
      "香": 4610,
      "馥": 4611,
      "馨": 4612,
      "駅": 4613,
      "马": 4614,
      "驭": 4615,
      "驮": 4616,
      "驯": 4617,
      "驰": 4618,
      "驱": 4619,
      "驳": 4620,
      "驴": 4621,
      "驶": 4622,
      "驷": 4623,
      "驹": 4624,
      "驻": 4625,
      "驼": 4626,
      "驾": 4627,
      "骁": 4628,
      "骂": 4629,
      "骄": 4630,
      "骆": 4631,
      "骇": 4632,
      "骋": 4633,
      "验": 4634,
      "骏": 4635,
      "骑": 4636,
      "骗": 4637,
      "骚": 4638,
      "骛": 4639,
      "骜": 4640,
      "骡": 4641,
      "骤": 4642,
      "骥": 4643,
      "骨": 4644,
      "骰": 4645,
      "骷": 4646,
      "骸": 4647,
      "骼": 4648,
      "髅": 4649,
      "髓": 4650,
      "高": 4651,
      "髙": 4652,
      "髭": 4653,
      "髻": 4654,
      "鬃": 4655,
      "鬓": 4656,
      "鬟": 4657,
      "鬣": 4658,
      "鬼": 4659,
      "魁": 4660,
      "魂": 4661,
      "魄": 4662,
      "魅": 4663,
      "魇": 4664,
      "魉": 4665,
      "魍": 4666,
      "魏": 4667,
      "魑": 4668,
      "魔": 4669,
      "鱗": 4670,
      "鱼": 4671,
      "鱿": 4672,
      "鲁": 4673,
      "鲈": 4674,
      "鲍": 4675,
      "鲑": 4676,
      "鲔": 4677,
      "鲛": 4678,
      "鲜": 4679,
      "鲟": 4680,
      "鲡": 4681,
      "鲤": 4682,
      "鲨": 4683,
      "鲫": 4684,
      "鲭": 4685,
      "鲱": 4686,
      "鲶": 4687,
      "鲷": 4688,
      "鲸": 4689,
      "鲽": 4690,
      "鳃": 4691,
      "鳄": 4692,
      "鳌": 4693,
      "鳍": 4694,
      "鳏": 4695,
      "鳕": 4696,
      "鳖": 4697,
      "鳗": 4698,
      "鳝": 4699,
      "鳞": 4700,
      "鳟": 4701,
      "鳶": 4702,
      "鵩": 4703,
      "鸆": 4704,
      "鸟": 4705,
      "鸠": 4706,
      "鸡": 4707,
      "鸢": 4708,
      "鸣": 4709,
      "鸥": 4710,
      "鸦": 4711,
      "鸧": 4712,
      "鸨": 4713,
      "鸩": 4714,
      "鸭": 4715,
      "鸯": 4716,
      "鸵": 4717,
      "鸶": 4718,
      "鸽": 4719,
      "鸿": 4720,
      "鹅": 4721,
      "鹉": 4722,
      "鹊": 4723,
      "鹌": 4724,
      "鹑": 4725,
      "鹤": 4726,
      "鹦": 4727,
      "鹫": 4728,
      "鹭": 4729,
      "鹰": 4730,
      "鹳": 4731,
      "鹿": 4732,
      "麂": 4733,
      "麋": 4734,
      "麓": 4735,
      "麟": 4736,
      "麦": 4737,
      "麻": 4738,
      "麾": 4739,
      "黄": 4740,
      "黍": 4741,
      "黎": 4742,
      "黏": 4743,
      "黑": 4744,
      "黒": 4745,
      "黔": 4746,
      "默": 4747,
      "黛": 4748,
      "黜": 4749,
      "黝": 4750,
      "黠": 4751,
      "黯": 4752,
      "鼎": 4753,
      "鼓": 4754,
      "鼠": 4755,
      "鼬": 4756,
      "鼹": 4757,
      "鼻": 4758,
      "鼾": 4759,
      "齐": 4760,
      "齑": 4761,
      "齿": 4762,
      "龄": 4763,
      "龅": 4764,
      "龇": 4765,
      "龊": 4766,
      "龌": 4767,
      "龙": 4768,
      "龛": 4769,
      "龟": 4770,
      "！": 4771,
      "＂": 4772,
      "％": 4773,
      "（": 4774,
      "）": 4775,
      "，": 4776,
      "．": 4777,
      "：": 4778,
      "；": 4779,
      "？": 4780,
      "Ａ": 4781,
      "Ｓ": 4782,
      "\r\n": 4783,
      "。\r\n": 4784,
      "▁“": 4785,
      "。”": 4786,
      "▁\r\n": 4787,
      "明非": 4788,
      "路明非": 4789,
      "了，": 4790,
      "，“": 4791,
      "。”\r\n": 4792,
      "？”": 4793,
      "他们": 4794,
      "什么": 4795,
      "没有": 4796,
      "自己": 4797,
      "一个": 4798,
      "我们": 4799,
      "……": 4800,
      "！”": 4801,
      "，但": 4802,
      "，他": 4803,
      "恺撒": 4804,
      "子航": 4805,
      "楚子航": 4806,
      "这个": 4807,
      "时候": 4808,
      "的，": 4809,
      "已经": 4810,
      "不是": 4811,
      "就是": 4812,
      "，这": 4813,
      "的人": 4814,
      "起来": 4815,
      "他的": 4816,
      "，我": 4817,
      "知道": 4818,
      "诺诺": 4819,
      "那个": 4820,
      "？”\r\n": 4821,
      "的时候": 4822,
      "，那": 4823,
      "，你": 4824,
      "了一": 4825,
      "像是": 4826,
      "源稚": 4827,
      "还是": 4828,
      "色的": 4829,
      "说，“": 4830,
      "那么": 4831,
      "世界": 4832,
      "因为": 4833,
      "都是": 4834,
      "▁路明非": 4835,
      "可以": 4836,
      "说。\r\n": 4837,
      "如果": 4838,
      "忽然": 4839,
      "来，": 4840,
      "女孩": 4841,
      "上，": 4842,
      "！”\r\n": 4843,
      "只是": 4844,
      "源稚生": 4845,
      "东西": 4846,
      "觉得": 4847,
      "里，": 4848,
      "▁他": 4849,
      "现在": 4850,
      "怎么": 4851,
      "了。\r\n": 4852,
      "这种": 4853,
      "，不": 4854,
      "。他": 4855,
      "，一": 4856,
      "，在": 4857,
      "大的": 4858,
      "你们": 4859,
      "，而": 4860,
      "，就": 4861,
      "人的": 4862,
      "中的": 4863,
      "还有": 4864,
      "昂热": 4865,
      "，可": 4866,
      "格尔": 4867,
      "芬格尔": 4868,
      "是个": 4869,
      "上的": 4870,
      "么？": 4871,
      "▁“我": 4872,
      "之后": 4873,
      "学院": 4874,
      "自己的": 4875,
      "所以": 4876,
      "只有": 4877,
      "，她": 4878,
      "不会": 4879,
      "时间": 4880,
      "这里": 4881,
      "日本": 4882,
      "了。": 4883,
      "这样": 4884,
      "声音": 4885,
      "你的": 4886,
      "是一": 4887,
      "，他们": 4888,
      "出来": 4889,
      "，也": 4890,
      "有人": 4891,
      "这么": 4892,
      "那些": 4893,
      "到了": 4894,
      "看着": 4895,
      "可能": 4896,
      "：“": 4897,
      "最后": 4898,
      "▁“你": 4899,
      "男人": 4900,
      "应该": 4901,
      "眼睛": 4902,
      "我的": 4903,
      "的地": 4904,
      "不能": 4905,
      "她的": 4906,
      "个人": 4907,
      "一样": 4908,
      "这些": 4909,
      "，它": 4910,
      "！\r\n": 4911,
      "布宁": 4912,
      "里的": 4913,
      "有点": 4914,
      "，我们": 4915,
      "，路明非": 4916,
      "这是": 4917,
      "的一": 4918,
      "其实": 4919,
      "开始": 4920,
      "么？”": 4921,
      "子，": 4922,
      "不过": 4923,
      "带着": 4924,
      "……”": 4925,
      "，把": 4926,
      "的是": 4927,
      "家伙": 4928,
      "的事": 4929,
      "喜欢": 4930,
      "校长": 4931,
      "也不": 4932,
      "那样": 4933,
      "的话": 4934,
      "人类": 4935,
      "一次": 4936,
      "任何": 4937,
      "，是": 4938,
      "一起": 4939,
      "下，": 4940,
      "感觉": 4941,
      "或者": 4942,
      "根本": 4943,
      "，”": 4944,
      "一直": 4945,
      "。但": 4946,
      "鸣泽": 4947,
      "虽然": 4948,
      "来的": 4949,
      "身体": 4950,
      "般的": 4951,
      "朋友": 4952,
      "去，": 4953,
      "路鸣泽": 4954,
      "中，": 4955,
      "么？”\r\n": 4956,
      "真的": 4957,
      "东京": 4958,
      "，因为": 4959,
      "完全": 4960,
      "看起来": 4961,
      "人，": 4962,
      "不知道": 4963,
      "甚至": 4964,
      "学生": 4965,
      "巨大的": 4966,
      "好像": 4967,
      "就会": 4968,
      "的声音": 4969,
      "所有": 4970,
      "心里": 4971,
      "，只": 4972,
      "出了": 4973,
      "无法": 4974,
      "的小": 4975,
      "不到": 4976,
      "也是": 4977,
      "武器": 4978,
      "梨衣": 4979,
      "绘梨衣": 4980,
      "，有": 4981,
      "孩子": 4982,
      "问题": 4983,
      "恩曦": 4984,
      "面前": 4985,
      "家族": 4986,
      "苏恩曦": 4987,
      "00": 4988,
      "了。”\r\n": 4989,
      "，却": 4990,
      "麻衣": 4991,
      "之前": 4992,
      "很多": 4993,
      "明白": 4994,
      "乌鸦": 4995,
      "大家": 4996,
      "站在": 4997,
      "，所以": 4998,
      "。这": 4999,
      "。”路明非": 5000,
      "仿佛": 5001,
      "那种": 5002,
      "缓缓": 5003,
      "头，": 5004,
      "居然": 5005,
      "需要": 5006,
      "龙王": 5007,
      "死侍": 5008,
      "塞尔": 5009,
      "▁这": 5010,
      "言灵": 5011,
      "准备": 5012,
      "它们": 5013,
      "的大": 5014,
      "的手": 5015,
      "瞬间": 5016,
      "酒德": 5017,
      "年轻": 5018,
      "▁恺撒": 5019,
      "背后": 5020,
      "坐在": 5021,
      "问。\r\n": 5022,
      "政宗": 5023,
      "，从": 5024,
      "？\r\n": 5025,
      "的东西": 5026,
      "之间": 5027,
      "确实": 5028,
      "着一": 5029,
      "了。”": 5030,
      "打开": 5031,
      "卡塞尔": 5032,
      "？”路明非": 5033,
      "的时候，": 5034,
      "起来，": 5035,
      "为了": 5036,
      "似乎": 5037,
      "当然": 5038,
      "酒德麻衣": 5039,
      "龙族": 5040,
      "意思": 5041,
      "都不": 5042,
      "家的": 5043,
      "，如果": 5044,
      "男孩": 5045,
      "为什么": 5046,
      "立刻": 5047,
      "都会": 5048,
      "，但是": 5049,
      "说话": 5050,
      "那是": 5051,
      "相信": 5052,
      "两个": 5053,
      "先生": 5054,
      "正在": 5055,
      "▁楚子航": 5056,
      "橘政宗": 5057,
      "离开": 5058,
      "力量": 5059,
      "女人": 5060,
      "就像": 5061,
      "下来": 5062,
      "▁但": 5063,
      "，对": 5064,
      "想要": 5065,
      "血统": 5066,
      "电话": 5067,
      "身上": 5068,
      "中国": 5069,
      "吧？": 5070,
      "此刻": 5071,
      "卡塞尔学院": 5072,
      "并不": 5073,
      "看到": 5074,
      "发出": 5075,
      "有些": 5076,
      "。我": 5077,
      "分钟": 5078,
      "的地方": 5079,
      "下的": 5080,
      "有一": 5081,
      "城市": 5082,
      "着，": 5083,
      "的。\r\n": 5084,
      "机会": 5085,
      "蛇岐": 5086,
      "蛇岐八": 5087,
      "子弹": 5088,
      "克里": 5089,
      "然后": 5090,
      "真是": 5091,
      "出现": 5092,
      "樱井": 5093,
      "”的": 5094,
      "作为": 5095,
      "执行": 5096,
      "，而是": 5097,
      "克里斯": 5098,
      "廷娜": 5099,
      "看见": 5100,
      "克里斯廷娜": 5101,
      "▁她": 5102,
      "，“我": 5103,
      "它的": 5104,
      "龙类": 5105,
      "整个": 5106,
      "老板": 5107,
      "说，": 5108,
      "。她": 5109,
      "面的": 5110,
      "成了": 5111,
      "清楚": 5112,
      "，每": 5113,
      "控制": 5114,
      "缓缓地": 5115,
      "存在": 5116,
      "世界上": 5117,
      "过去": 5118,
      "他们的": 5119,
      "动，": 5120,
      "▁“不": 5121,
      "一切": 5122,
      "路明非的": 5123,
      "一点": 5124,
      "口气": 5125,
      "出去": 5126,
      "大概": 5127,
      "意识": 5128,
      "非常": 5129,
      "呢？": 5130,
      "雯雯": 5131,
      "沉默": 5132,
      "陈雯雯": 5133,
      "图索": 5134,
      "施耐": 5135,
      "施耐德": 5136,
      "加图索": 5137,
      "的那": 5138,
      "混血": 5139,
      "电梯": 5140,
      "，以": 5141,
      "的女孩": 5142,
      "师兄": 5143,
      "，像是": 5144,
      "发现": 5145,
      "哥哥": 5146,
      "名字": 5147,
      "研究": 5148,
      "王将": 5149,
      "▁“是": 5150,
      "同时": 5151,
      "琉璃": 5152,
      "能够": 5153,
      "在他": 5154,
      "漂亮": 5155,
      "点头": 5156,
      "下去": 5157,
      "穿着": 5158,
      "▁第": 5159,
      "今天": 5160,
      "能力": 5161,
      "混血种": 5162,
      "不要": 5163,
      "微微": 5164,
      "风间": 5165,
      "即使": 5166,
      "的脸": 5167,
      "轻声": 5168,
      "好的": 5169,
      "露出": 5170,
      "魔鬼": 5171,
      "▁诺诺": 5172,
      "玻璃": 5173,
      "……”\r\n": 5174,
      "风间琉璃": 5175,
      "一下": 5176,
      "工作": 5177,
      "。”恺撒": 5178,
      "件事": 5179,
      "原本": 5180,
      "在那": 5181,
      "长的": 5182,
      "安全": 5183,
      "以为": 5184,
      "找到": 5185,
      "的。": 5186,
      "记得": 5187,
      "一个人": 5188,
      "只能": 5189,
      "也没": 5190,
      "，这是": 5191,
      "的黑": 5192,
      "秒钟": 5193,
      "！”路明非": 5194,
      "娜塔": 5195,
      "继续": 5196,
      "一刻": 5197,
      "，还": 5198,
      "一条": 5199,
      "真正": 5200,
      "面，": 5201,
      "进入": 5202,
      "。路明非": 5203,
      "巴斯": 5204,
      "要是": 5205,
      "必须": 5206,
      "金属": 5207,
      "不同": 5208,
      "终于": 5209,
      "阿巴斯": 5210,
      "还在": 5211,
      "关系": 5212,
      "，就像": 5213,
      "就能": 5214,
      "其他": 5215,
      "办法": 5216,
      "想到": 5217,
      "表情": 5218,
      "几个": 5219,
      "教授": 5220,
      "黑色的": 5221,
      "唯一": 5222,
      "在这": 5223,
      "希望": 5224,
      "蛇岐八家": 5225,
      "上了": 5226,
      "小时": 5227,
      "空气": 5228,
      "一眼": 5229,
      "，恺撒": 5230,
      "有什么": 5231,
      "施坦": 5232,
      "曼施坦": 5233,
      "都没有": 5234,
      "这样的": 5235,
      "曼施坦因": 5236,
      "危险": 5237,
      "地看着": 5238,
      "杀死": 5239,
      "过来": 5240,
      "手机": 5241,
      "的血": 5242,
      "里面": 5243,
      "也许": 5244,
      "目标": 5245,
      "罗斯": 5246,
      "▁“那": 5247,
      "。他们": 5248,
      "在这里": 5249,
      "高速": 5250,
      "，那是": 5251,
      "，不过": 5252,
      "身边": 5253,
      "雷娜塔": 5254,
      "了！": 5255,
      "。”楚子航": 5256,
      "双手": 5257,
      "奥金": 5258,
      "奥金涅": 5259,
      "天空": 5260,
      "来说": 5261,
      "到底": 5262,
      "声，": 5263,
      "所有人": 5264,
      "了几": 5265,
      "，跟": 5266,
      "奥金涅兹": 5267,
      "对方": 5268,
      "重要": 5269,
      "了，他": 5270,
      "住了": 5271,
      "我们的": 5272,
      "不得": 5273,
      "啊！": 5274,
      "夏弥": 5275,
      "的老": 5276,
      "距离": 5277,
      "出来，": 5278,
      "无论": 5279,
      "都没": 5280,
      "怪物": 5281,
      "爆炸": 5282,
      "苏茜": 5283,
      "情况": 5284,
      "过，": 5285,
      "回来": 5286,
      "眼神": 5287,
      "，这个": 5288,
      "，还有": 5289,
      "在地": 5290,
      "的心": 5291,
      "，只是": 5292,
      "一定": 5293,
      "低声": 5294,
      "，说": 5295,
      "面上": 5296,
      "，再": 5297,
      "历史": 5298,
      "得很": 5299,
      "秘密": 5300,
      "，“你": 5301,
      "可是": 5302,
      "第一": 5303,
      "任务": 5304,
      "神经": 5305,
      "觉得自己": 5306,
      "上杉": 5307,
      "位置": 5308,
      "▁“这": 5309,
      "沿着": 5310,
      "白色的": 5311,
      "给我": 5312,
      "越来": 5313,
      "发生": 5314,
      "起身": 5315,
      "楚子航的": 5316,
      "，让": 5317,
      "越来越": 5318,
      "都在": 5319,
      "失去": 5320,
      "，用": 5321,
      "啊，": 5322,
      "生活": 5323,
      "黑道": 5324,
      "是什么": 5325,
      "速度": 5326,
      "某个": 5327,
      "的水": 5328,
      "红色的": 5329,
      "还没": 5330,
      "师姐": 5331,
      "地说。\r\n": 5332,
      "叔叔": 5333,
      "跟他": 5334,
      "，没有": 5335,
      "刚才": 5336,
      "看看": 5337,
      "，又": 5338,
      "出一": 5339,
      "服务": 5340,
      "兄弟": 5341,
      "年的": 5342,
      "，然后": 5343,
      "几乎": 5344,
      "是在": 5345,
      "不多": 5346,
      "婶婶": 5347,
      "客人": 5348,
      "洛特": 5349,
      "的男人": 5350,
      "句话": 5351,
      "显然": 5352,
      "永远": 5353,
      "给你": 5354,
      "。那": 5355,
      "上。\r\n": 5356,
      "深处": 5357,
      "直升": 5358,
      "跟你": 5359,
      "跟我": 5360,
      "也会": 5361,
      "对于": 5362,
      "，他的": 5363,
      "生命": 5364,
      "生物": 5365,
      "，要": 5366,
      "呼吸": 5367,
      "地说，“": 5368,
      "多少": 5369,
      "兰斯": 5370,
      "给他": 5371,
      "部的": 5372,
      "兰斯洛特": 5373,
      "都被": 5374,
      "，它们": 5375,
      "告诉": 5376,
      "哪里": 5377,
      "如今": 5378,
      "系统": 5379,
      "领域": 5380,
      "接近": 5381,
      "秘党": 5382,
      "！我": 5383,
      "不敢": 5384,
      "各种": 5385,
      "在一起": 5386,
      "状态": 5387,
      "才能": 5388,
      "结束": 5389,
      "绝对": 5390,
      "屏幕": 5391,
      "总是": 5392,
      "的“": 5393,
      "脑袋": 5394,
      "计划": 5395,
      "还能": 5396,
      "你是": 5397,
      "奇怪": 5398,
      "的人，": 5399,
      "和楚子航": 5400,
      "，楚子航": 5401,
      "。在": 5402,
      "把他": 5403,
      "旁边": 5404,
      "外面": 5405,
      "开了": 5406,
      "公子": 5407,
      "直接": 5408,
      "”，": 5409,
      "很久": 5410,
      "曾经": 5411,
      "盯着": 5412,
      "之后，": 5413,
      "利亚": 5414,
      "这一": 5415,
      "愿意": 5416,
      "手，": 5417,
      "淡淡": 5418,
      "炼金": 5419,
      "所谓": 5420,
      "美国": 5421,
      "过的": 5422,
      "就在": 5423,
      "燃烧": 5424,
      "除了": 5425,
      "她们": 5426,
      "某种": 5427,
      "白色": 5428,
      "衣服": 5429,
      "起，": 5430,
      "，想": 5431,
      "不住": 5432,
      "地方": 5433,
      "肩膀": 5434,
      "变成": 5435,
      "直到": 5436,
      "里安": 5437,
      "直升机": 5438,
      "看不": 5439,
      "通过": 5440,
      "的高": 5441,
      "一边": 5442,
      "传来": 5443,
      "微笑": 5444,
      "奥丁": 5445,
      "也没有": 5446,
      "以前": 5447,
      "就要": 5448,
      "目光": 5449,
      "精神": 5450,
      "都有": 5451,
      "零号": 5452,
      "黑暗": 5453,
      "了，我": 5454,
      "了他": 5455,
      "无声": 5456,
      "消失": 5457,
      "负责": 5458,
      "路上": 5459,
      "儿子": 5460,
      "前方": 5461,
      "只要": 5462,
      "好，": 5463,
      "藏在": 5464,
      "，你们": 5465,
      "学生会": 5466,
      "了口气": 5467,
      "火焰": 5468,
      "的事情": 5469,
      "上去": 5470,
      "每个": 5471,
      "游戏": 5472,
      "，就是": 5473,
      "。可": 5474,
      "难道": 5475,
      "的。”\r\n": 5476,
      "……\r\n": 5477,
      "薇尼": 5478,
      "还没有": 5479,
      "金色": 5480,
      "家主": 5481,
      "新的": 5482,
      "片刻": 5483,
      "的眼睛": 5484,
      "那里": 5485,
      "了一眼": 5486,
      "一只": 5487,
      "妈妈": 5488,
      "经过": 5489,
      "，那么": 5490,
      "不想": 5491,
      "使用": 5492,
      "地下": 5493,
      "赫尔": 5494,
      "古德": 5495,
      "如此": 5496,
      "古德里安": 5497,
      "三个": 5498,
      "。你": 5499,
      "刚刚": 5500,
      "很难": 5501,
      "战斗": 5502,
      "红色": 5503,
      "，大": 5504,
      "，这种": 5505,
      "佐格": 5506,
      "孟华": 5507,
      "庞贝": 5508,
      "建筑": 5509,
      "特别": 5510,
      "猛地": 5511,
      "留下": 5512,
      "的长": 5513,
      "结果": 5514,
      "赵孟华": 5515,
      "赫尔佐格": 5516,
      "重的": 5517,
      "开，": 5518,
      "故事": 5519,
      "，现在": 5520,
      "他是": 5521,
      "回答": 5522,
      "在一": 5523,
      "的女": 5524,
      "，连": 5525,
      "年轻人": 5526,
      "来。\r\n": 5527,
      "黑影": 5528,
      "海水": 5529,
      "空间": 5530,
      "▁“我们": 5531,
      "美元": 5532,
      "足够": 5533,
      "青铜": 5534,
      "，好像": 5535,
      "一些": 5536,
      "伯龙": 5537,
      "周围": 5538,
      "多年": 5539,
      "▁源稚生": 5540,
      "两个人": 5541,
      "的神": 5542,
      "出现在": 5543,
      "命令": 5544,
      "父亲": 5545,
      "通道": 5546,
      "，但他": 5547,
      "才是": 5548,
      "时代": 5549,
      "▁可": 5550,
      "了个": 5551,
      "，仿佛": 5552,
      "少女": 5553,
      "想起": 5554,
      "，这些": 5555,
      "应该是": 5556,
      "意识到": 5557,
      "会儿": 5558,
      "没什么": 5559,
      "装备": 5560,
      "。”诺诺": 5561,
      "乔薇尼": 5562,
      "副校长": 5563,
      "向着": 5564,
      "门，": 5565,
      "源稚女": 5566,
      "只剩": 5567,
      "普通": 5568,
      "不可": 5569,
      "在这个": 5570,
      "犬山": 5571,
      "身份": 5572,
      "这座": 5573,
      "扭头": 5574,
      "随时": 5575,
      "面对": 5576,
      "▁那": 5577,
      "，甚至": 5578,
      "没有人": 5579,
      "。如果": 5580,
      "技术": 5581,
      "狠狠": 5582,
      "，而且": 5583,
      "原来": 5584,
      "容易": 5585,
      "有个": 5586,
      "样的": 5587,
      "重新": 5588,
      "默默": 5589,
      "一张": 5590,
      "简直": 5591,
      "轻轻": 5592,
      "一片": 5593,
      "就像是": 5594,
      "in": 5595,
      "。恺撒": 5596,
      "地狱": 5597,
      "无数": 5598,
      "漆黑": 5599,
      "老大": 5600,
      "冷冷": 5601,
      "就算": 5602,
      "尸守": 5603,
      "方向": 5604,
      "猛鬼": 5605,
      "老爹": 5606,
      "入了": 5607,
      "转身": 5608,
      "伸手": 5609,
      "基因": 5610,
      "放在": 5611,
      "会有": 5612,
      "吧？”": 5613,
      "解释": 5614,
      "。”昂热": 5615,
      "中央": 5616,
      "北极": 5617,
      "子里": 5618,
      "生的": 5619,
      "事情": 5620,
      "的气": 5621,
      "进化": 5622,
      "，最后": 5623,
      "头发": 5624,
      "当年": 5625,
      "的光": 5626,
      "的身体": 5627,
      "了一个": 5628,
      "而已": 5629,
      "达列": 5630,
      "黑色": 5631,
      "猛鬼众": 5632,
      "刀，": 5633,
      "听见": 5634,
      "地说": 5635,
      "照片": 5636,
      "竟然": 5637,
      "邦达列": 5638,
      "飞机": 5639,
      "邦达列夫": 5640,
      "ra": 5641,
      "注意": 5642,
      "驾驶": 5643,
      "龙血": 5644,
      "，没": 5645,
      "决定": 5646,
      "几十": 5647,
      "叹了口气": 5648,
      "校董": 5649,
      "让人": 5650,
      "放弃": 5651,
      "的时间": 5652,
      "还不": 5653,
      "这件事": 5654,
      "如同": 5655,
      "慢慢": 5656,
      "最终": 5657,
      "渐渐": 5658,
      "说的": 5659,
      "选择": 5660,
      "保护": 5661,
      "高天": 5662,
      "反应": 5663,
      "简单": 5664,
      "！你": 5665,
      "了解": 5666,
      "的力量": 5667,
      "进了": 5668,
      "出来的": 5669,
      "上杉越": 5670,
      "不对": 5671,
      "担心": 5672,
      "每个人": 5673,
      "苏醒": 5674,
      "行动": 5675,
      "路麟": 5676,
      "都能": 5677,
      "路麟城": 5678,
      "记忆": 5679,
      "va": 5680,
      "尸体": 5681,
      "恐惧": 5682,
      "神的": 5683,
      "第一次": 5684,
      "阳光": 5685,
      "是他": 5686,
      "，虽然": 5687,
      "，即使": 5688,
      "完美": 5689,
      "小的": 5690,
      "高天原": 5691,
      "再度": 5692,
      "利维": 5693,
      "发射": 5694,
      "孤独": 5695,
      "很快": 5696,
      "心说": 5697,
      "说得": 5698,
      "车，": 5699,
      "成为": 5700,
      "说过": 5701,
      "跟着": 5702,
      "随着": 5703,
      "没法": 5704,
      "的风": 5705,
      "看向": 5706,
      "耸肩": 5707,
      "狠狠地": 5708,
      "一把": 5709,
      "下方": 5710,
      "下来，": 5711,
      "白王": 5712,
      "看了一眼": 5713,
      "邵公子": 5714,
      "头鲸": 5715,
      "屠龙": 5716,
      "见过": 5717,
      "樱井明": 5718,
      "▁他们": 5719,
      "不知": 5720,
      "别人": 5721,
      "望着": 5722,
      "死亡": 5723,
      "真正的": 5724,
      "分部": 5725,
      "制造": 5726,
      "脸上": 5727,
      "设备": 5728,
      "住了，": 5729,
      "全部": 5730,
      "尼伯龙": 5731,
      "角落": 5732,
      "那张": 5733,
      "高的": 5734,
      "尼伯龙根": 5735,
      "第二": 5736,
      "镰鼬": 5737,
      "，被": 5738,
      "牛郎": 5739,
      "至于": 5740,
      "看了": 5741,
      "肌肉": 5742,
      "利维坦": 5743,
      "似的": 5744,
      "攻击": 5745,
      "世界的": 5746,
      "俄罗斯": 5747,
      "倒是": 5748,
      "座头鲸": 5749,
      "起了": 5750,
      "风魔": 5751,
      "，只有": 5752,
      "主席": 5753,
      "力，": 5754,
      "对他": 5755,
      "对手": 5756,
      "进攻": 5757,
      "释放": 5758,
      "，那些": 5759,
      "口，": 5760,
      "等待": 5761,
      "黄金": 5762,
      "别的": 5763,
      "头顶": 5764,
      "彻底": 5765,
      "资料": 5766,
      "去。\r\n": 5767,
      "开心": 5768,
      "战场": 5769,
      "来不": 5770,
      "死了，": 5771,
      "妈的": 5772,
      "姑娘": 5773,
      "就不": 5774,
      "的刀": 5775,
      "让他": 5776,
      "头。\r\n": 5777,
      "当时": 5778,
      "恢复": 5779,
      "我是": 5780,
      "。”源稚生": 5781,
      "一步": 5782,
      "二十": 5783,
      "就好": 5784,
      "心脏": 5785,
      "梅涅": 5786,
      "走廊": 5787,
      "梅涅克": 5788,
      "吧？”\r\n": 5789,
      "满了": 5790,
      "神秘": 5791,
      "认为": 5792,
      "超过": 5793,
      "？”恺撒": 5794,
      "”。\r\n": 5795,
      "一愣": 5796,
      "他，": 5797,
      "始终": 5798,
      "正常": 5799,
      "理解": 5800,
      "耸耸肩": 5801,
      "认识": 5802,
      "下了": 5803,
      "墙壁": 5804,
      "害怕": 5805,
      "手中": 5806,
      "来自": 5807,
      "骨骼": 5808,
      "一场": 5809,
      "附近": 5810,
      "鳞片": 5811,
      "，一个": 5812,
      "不可能": 5813,
      "宫本": 5814,
      "部分": 5815,
      "里。\r\n": 5816,
      "们的": 5817,
      "地，": 5818,
      "帕西": 5819,
      "是我": 5820,
      "的巨": 5821,
      "？你": 5822,
      "▁“没": 5823,
      "会议": 5824,
      "在了": 5825,
      "地面": 5826,
      "敌人": 5827,
      "超级": 5828,
      "起来。\r\n": 5829,
      "所有的": 5830,
      "3号": 5831,
      "窗外": 5832,
      "金色的": 5833,
      "？我": 5834,
      "差不多": 5835,
      "战争": 5836,
      "的家伙": 5837,
      "瞳孔": 5838,
      "办公": 5839,
      "变成了": 5840,
      "大吼": 5841,
      "毫无": 5842,
      "而是": 5843,
      "这条": 5844,
      "像个": 5845,
      "全身": 5846,
      "出的": 5847,
      "鲜血": 5848,
      "，诺诺": 5849,
      "上方": 5850,
      "也有": 5851,
      "子。\r\n": 5852,
      "并非": 5853,
      "旋转": 5854,
      "，好": 5855,
      "，那个": 5856,
      "今晚": 5857,
      "后面": 5858,
      "确定": 5859,
      "笑笑": 5860,
      "说是": 5861,
      "走到": 5862,
      "还要": 5863,
      "▁“可": 5864,
      "博士": 5865,
      "，也许": 5866,
      "神经病": 5867,
      "不好": 5868,
      "巴尔": 5869,
      "恐怖": 5870,
      "抓住": 5871,
      "▁“别": 5872,
      "唯一的": 5873,
      "不在": 5874,
      "于是": 5875,
      "呆呆": 5876,
      "完成": 5877,
      "而且": 5878,
      "了，但": 5879,
      "▁昂热": 5880,
      "后，": 5881,
      "否则": 5882,
      "手里": 5883,
      "手中的": 5884,
      "来得": 5885,
      "诺玛": 5886,
      "令人": 5887,
      "成功": 5888,
      "，这样": 5889,
      "变得": 5890,
      "叶胜": 5891,
      "同学": 5892,
      "的火": 5893,
      "的。”": 5894,
      "至少": 5895,
      "雷巴尔": 5896,
      "最后的": 5897,
      "雷巴尔科": 5898,
      "护士": 5899,
      "活着": 5900,
      "空中": 5901,
      "19": 5902,
      "一根": 5903,
      "可怕": 5904,
      "小姐": 5905,
      "消息": 5906,
      "，忽然": 5907,
      "，就像是": 5908,
      "从未": 5909,
      "到达": 5910,
      "观察": 5911,
      "20": 5912,
      "不了": 5913,
      "动物": 5914,
      "果然": 5915,
      "浑身": 5916,
      "的感觉": 5917,
      "脑海": 5918,
      "藤原": 5919,
      "远处": 5920,
      "恺撒的": 5921,
      "大概是": 5922,
      "信号": 5923,
      "照亮": 5924,
      "看来": 5925,
      "神话": 5926,
      "苏晓": 5927,
      "西装": 5928,
      "其实是": 5929,
      "执行部": 5930,
      "他在": 5931,
      "枪，": 5932,
      "确实是": 5933,
      "也不是": 5934,
      "会被": 5935,
      "怀疑": 5936,
      "是不是": 5937,
      "说我": 5938,
      "说明": 5939,
      "之间的": 5940,
      "山彦": 5941,
      "胚胎": 5942,
      "并没有": 5943,
      "掌握": 5944,
      "眼前": 5945,
      "脚步": 5946,
      "人员": 5947,
      "么？”路明非": 5948,
      "感觉到": 5949,
      "默默地": 5950,
      "。我们": 5951,
      "之一": 5952,
      "优秀": 5953,
      "不出": 5954,
      "了起来，": 5955,
      "保持": 5956,
      "其中": 5957,
      "反正": 5958,
      "后来": 5959,
      "暴力": 5960,
      "死的": 5961,
      "声。\r\n": 5962,
      "就被": 5963,
      "很有": 5964,
      "拥有": 5965,
      "晚上": 5966,
      "自然": 5967,
      "了一下": 5968,
      "犬山贺": 5969,
      "苏晓樯": 5970,
      "您的": 5971,
      "愤怒": 5972,
      "把它": 5973,
      "的、": 5974,
      "迅速": 5975,
      "钥匙": 5976,
      "，看起来": 5977,
      "所有人都": 5978,
      "吧，": 5979,
      "as": 5980,
      "he": 5981,
      "上。": 5982,
      "了……": 5983,
      "人。\r\n": 5984,
      "围绕": 5985,
      "小心": 5986,
      "抱着": 5987,
      "按照": 5988,
      "方式": 5989,
      "极其": 5990,
      "隐约": 5991,
      "没有任何": 5992,
      "那么多": 5993,
      "专员": 5994,
      "回去": 5995,
      "子的": 5996,
      "抬起": 5997,
      "紧张": 5998,
      "解决": 5999,
      "路山彦": 6000,
      "！”芬格尔": 6001,
      "十几": 6002,
      "更多": 6003,
      "的身": 6004,
      "致命": 6005,
      "们都": 6006,
      "很好": 6007,
      "来到": 6008,
      "灯光": 6009,
      "犹豫": 6010,
      "程度": 6011,
      "获得": 6012,
      "不得不": 6013,
      "交易": 6014,
      "动着": 6015,
      "大厦": 6016,
      "大，": 6017,
      "比如": 6018,
      "让我": 6019,
      "，只要": 6020,
      "不太": 6021,
      "也不会": 6022,
      "轻声说，“": 6023,
      "**": 6024,
      "▁在": 6025,
      "医生": 6026,
      "皇帝": 6027,
      "老师": 6028,
      "而言": 6029,
      "这间": 6030,
      "太多": 6031,
      "惊讶": 6032,
      "是谁": 6033,
      "暴雨": 6034,
      "肯定": 6035,
      "会的": 6036,
      "实在": 6037,
      "小太": 6038,
      "接受": 6039,
      "根据": 6040,
      "紧紧": 6041,
      "车的": 6042,
      "▁“如果": 6043,
      "怎么会": 6044,
      "夜叉": 6045,
      "大厅": 6046,
      "摧毁": 6047,
      "毕业": 6048,
      "沙发": 6049,
      "没人": 6050,
      "炸弹": 6051,
      "狮心": 6052,
      "级的": 6053,
      "只剩下": 6054,
      "100": 6055,
      "冲锋": 6056,
      "千万": 6057,
      "对着": 6058,
      "弗罗斯": 6059,
      "想象": 6060,
      "断了": 6061,
      "语气": 6062,
      "这家伙": 6063,
      "弗罗斯特": 6064,
      "十五": 6065,
      "天鹅": 6066,
      "弟弟": 6067,
      "灵魂": 6068,
      "的门": 6069,
      "的意思": 6070,
      "准确": 6071,
      "努力": 6072,
      "另一": 6073,
      "命运": 6074,
      "在水": 6075,
      "大声": 6076,
      "室里": 6077,
      "平静": 6078,
      "情报": 6079,
      "潜水": 6080,
      "的白": 6081,
      "的铁": 6082,
      "英雄": 6083,
      "▁一": 6084,
      "。楚子航": 6085,
      "一天": 6086,
      "人家": 6087,
      "对视": 6088,
      "尽头": 6089,
      "摩托": 6090,
      "死了": 6091,
      "碎片": 6092,
      "可能是": 6093,
      "无声地": 6094,
      "慢慢地": 6095,
      "不清": 6096,
      "在他的": 6097,
      "得到": 6098,
      "拍卖": 6099,
      "拥抱": 6100,
      "温暖": 6101,
      "说你": 6102,
      "这位": 6103,
      "雪茄": 6104,
      "大家长": 6105,
      "加图索家": 6106,
      "。这是": 6107,
      "地的": 6108,
      "我就": 6109,
      "摇头": 6110,
      "是要": 6111,
      "真实": 6112,
      "了，你": 6113,
      "你们的": 6114,
      "。而": 6115,
      "不用": 6116,
      "伤口": 6117,
      "动作": 6118,
      "效果": 6119,
      "早已": 6120,
      "者的": 6121,
      "▁“什么": 6122,
      "眼睛，": 6123,
      "情况下": 6124,
      "回到": 6125,
      "对你": 6126,
      "小魔鬼": 6127,
      "火车": 6128,
      "蜘蛛": 6129,
      "逼近": 6130,
      "龙的": 6131,
      "。它": 6132,
      "出去，": 6133,
      "坠落": 6134,
      "好了": 6135,
      "才会": 6136,
      "的海": 6137,
      "▁“他": 6138,
      "来不及": 6139,
      "来得及": 6140,
      "小太郎": 6141,
      "掉了": 6142,
      "文件": 6143,
      "母亲": 6144,
      "爸爸": 6145,
      "静静": 6146,
      "面具": 6147,
      "风衣": 6148,
      "麻烦": 6149,
      "an": 6150,
      "不起": 6151,
      "着他": 6152,
      "老人": 6153,
      "走了": 6154,
      "进去": 6155,
      "进来": 6156,
      "音乐": 6157,
      "，最": 6158,
      "失去了": 6159,
      "必要": 6160,
      "挣扎": 6161,
      "狂风": 6162,
      "组织": 6163,
      "那边": 6164,
      "高兴": 6165,
      "就可以": 6166,
      "手指": 6167,
      "的机会": 6168,
      "路，": 6169,
      "最后一": 6170,
      "eva": 6171,
      "不断": 6172,
      "也很": 6173,
      "利的": 6174,
      "听到": 6175,
      "地把": 6176,
      "有种": 6177,
      "淼淼": 6178,
      "点点头": 6179,
      "生日": 6180,
      "，和": 6181,
      "on": 6182,
      "人生": 6183,
      "有的": 6184,
      "正义": 6185,
      "毁灭": 6186,
      "的好": 6187,
      "继承": 6188,
      "苏联": 6189,
      "，看": 6190,
      "，还是": 6191,
      "风魔小太郎": 6192,
      "奥武": 6193,
      "女儿": 6194,
      "满脸": 6195,
      "的后": 6196,
      "秘书": 6197,
      "算是": 6198,
      "考虑": 6199,
      "贝奥武": 6200,
      "那条": 6201,
      "靠近": 6202,
      "颤抖": 6203,
      "贝奥武夫": 6204,
      "▁这是": 6205,
      "作战": 6206,
      "原因": 6207,
      "多利亚": 6208,
      "巴赫": 6209,
      "得像是": 6210,
      "旅行": 6211,
      "更加": 6212,
      "熟悉": 6213,
      "组成": 6214,
      "维多利亚": 6215,
      "错误": 6216,
      "，不是": 6217,
      "分明": 6218,
      "前，": 6219,
      "参加": 6220,
      "家里": 6221,
      "既然": 6222,
      "期待": 6223,
      "，两": 6224,
      "，谁": 6225,
      "学院的": 6226,
      "▁这个": 6227,
      "中。\r\n": 6228,
      "了很久": 6229,
      "口袋": 6230,
      "大约": 6231,
      "安排": 6232,
      "曼斯": 6233,
      "来了": 6234,
      "烈的": 6235,
      "礼物": 6236,
      "迈巴赫": 6237,
      "……我": 6238,
      "人类的": 6239,
      "是你": 6240,
      "未必": 6241,
      "清晰": 6242,
      "理由": 6243,
      "的，但": 6244,
      "笑容": 6245,
      "设计": 6246,
      "已经被": 6247,
      "人物": 6248,
      "出，": 6249,
      "动力": 6250,
      "太阳": 6251,
      "学校": 6252,
      "报告": 6253,
      "爱的": 6254,
      "用来": 6255,
      "的位置": 6256,
      "要求": 6257,
      "试图": 6258,
      "了一下，": 6259,
      "轻声说。\r\n": 6260,
      "事儿": 6261,
      "会在": 6262,
      "子上": 6263,
      "必然": 6264,
      "是因为": 6265,
      "最大的": 6266,
      "穿越": 6267,
      "落在": 6268,
      "10": 6269,
      "不够": 6270,
      "仍旧": 6271,
      "很少": 6272,
      "接着": 6273,
      "藏着": 6274,
      "这场": 6275,
      "都要": 6276,
      "▁“好": 6277,
      "怎么样": 6278,
      "的话，": 6279,
      "依然": 6280,
      "大海": 6281,
      "斯科": 6282,
      "蓝色的": 6283,
      "蛇岐八家的": 6284,
      "。这个": 6285,
      "上面": 6286,
      "了他的": 6287,
      "在我": 6288,
      "多数": 6289,
      "背影": 6290,
      "高跟": 6291,
      "ing": 6292,
      "上来": 6293,
      "了好": 6294,
      "前的": 6295,
      "医院": 6296,
      "哈哈": 6297,
      "啊。”": 6298,
      "学的": 6299,
      "属于": 6300,
      "并未": 6301,
      "斯特": 6302,
      "是一个": 6303,
      "最高": 6304,
      "沙漠": 6305,
      "点燃": 6306,
      "的武器": 6307,
      "眼里": 6308,
      "，下": 6309,
      "，似乎": 6310,
      "——": 6311,
      "。所以": 6312,
      "上一": 6313,
      "价值": 6314,
      "挥舞": 6315,
      "的瞬间": 6316,
      "表示": 6317,
      "见的": 6318,
      "这次": 6319,
      "风雨": 6320,
      "，或者": 6321,
      "古德里安教授": 6322,
      "之介": 6323,
      "了片刻": 6324,
      "信之介": 6325,
      "忘记": 6326,
      "意义": 6327,
      "找到了": 6328,
      "莫斯科": 6329,
      "靠在": 6330,
      "了，“": 6331,
      "什么时候": 6332,
      "藤原信之介": 6333,
      "EV": 6334,
      "他就": 6335,
      "信息": 6336,
      "动。\r\n": 6337,
      "听起来": 6338,
      "男人的": 6339,
      "的样": 6340,
      "皱眉": 6341,
      "表现": 6342,
      "记录": 6343,
      "，源稚生": 6344,
      "亚纪": 6345,
      "和路明非": 6346,
      "天而": 6347,
      "废柴": 6348,
      "机械": 6349,
      "猎物": 6350,
      "等着": 6351,
      "长发": 6352,
      "，请": 6353,
      "就是个": 6354,
      "的一切": 6355,
      "，只能": 6356,
      "几百": 6357,
      "古老": 6358,
      "屋顶": 6359,
      "开枪": 6360,
      "彼此": 6361,
      "拒绝": 6362,
      "有没有": 6363,
      "类似": 6364,
      "被人": 6365,
      "见鬼": 6366,
      "警察": 6367,
      "长刀": 6368,
      "长大": 6369,
      "，但我": 6370,
      "不同的": 6371,
      "校董会": 6372,
      "EVA": 6373,
      "了！”\r\n": 6374,
      "全世界": 6375,
      "化为": 6376,
      "如何": 6377,
      "并不是": 6378,
      "意外": 6379,
      "指挥": 6380,
      "暴走": 6381,
      "身上的": 6382,
      "转过": 6383,
      "通常": 6384,
      "食物": 6385,
      "，深": 6386,
      "er": 6387,
      "几天": 6388,
      "双方": 6389,
      "喝酒": 6390,
      "嘴里": 6391,
      "开车": 6392,
      "心，": 6393,
      "感情": 6394,
      "戴着": 6395,
      "明的": 6396,
      "柳淼淼": 6397,
      "电影": 6398,
      "皮肤": 6399,
      "脸色": 6400,
      "身上，": 6401,
      "隧道": 6402,
      "领袖": 6403,
      "！”恺撒": 6404,
      "诺诺的": 6405,
      "装备部": 6406,
      "▁苏恩曦": 6407,
      "但是": 6408,
      "元素": 6409,
      "发动": 6410,
      "安静": 6411,
      "帮你": 6412,
      "帮助": 6413,
      "桌上": 6414,
      "认真": 6415,
      "里有": 6416,
      "说，“我": 6417,
      "执行局": 6418,
      "50": 6419,
      "▁芬格尔": 6420,
      "▁酒德麻衣": 6421,
      "公里": 6422,
      "后的": 6423,
      "干什么": 6424,
      "抵达": 6425,
      "经常": 6426,
      "边，": 6427,
      "▁“你们": 6428,
      "三个人": 6429,
      "变化": 6430,
      "古代": 6431,
      "地图": 6432,
      "工程": 6433,
      "恶鬼": 6434,
      "本该": 6435,
      "边的": 6436,
      "紧紧地": 6437,
      "al": 6438,
      "了起来": 6439,
      "伯利亚": 6440,
      "回头": 6441,
      "本来": 6442,
      "毕竟": 6443,
      "流露出": 6444,
      "西伯利亚": 6445,
      "长，": 6446,
      "家族的": 6447,
      "不懂": 6448,
      "不见": 6449,
      "了我": 6450,
      "值得": 6451,
      "兴趣": 6452,
      "再次": 6453,
      "小布宁": 6454,
      "山大": 6455,
      "巨蛇": 6456,
      "打了个": 6457,
      "死去": 6458,
      "监控": 6459,
      "赶紧": 6460,
      "邀请": 6461,
      "那座": 6462,
      "都很": 6463,
      "在那里": 6464,
      "炼金术": 6465,
      "▁他的": 6466,
      "不上": 6467,
      "习惯": 6468,
      "事，": 6469,
      "台上": 6470,
      "司机": 6471,
      "国家": 6472,
      "地震": 6473,
      "影响": 6474,
      "往下": 6475,
      "志雄": 6476,
      "悲伤": 6477,
      "打在": 6478,
      "提供": 6479,
      "服，": 6480,
      "点了": 6481,
      "狰狞": 6482,
      "痛苦": 6483,
      "联系": 6484,
      "落地": 6485,
      "血的": 6486,
      "▁“喂": 6487,
      "宫本志雄": 6488,
      "一会儿": 6489,
      "公司": 6490,
      "弥漫": 6491,
      "显得": 6492,
      "暴露": 6493,
      "狙击": 6494,
      "过来，": 6495,
      "，能": 6496,
      "了，这": 6497,
      "世纪": 6498,
      "射击": 6499,
      "支持": 6500,
      "牺牲": 6501,
      "的主": 6502,
      "胸口": 6503,
      "要把": 6504,
      "，直到": 6505,
      "？”诺诺": 6506,
      "不该": 6507,
      "中间": 6508,
      "之鹰": 6509,
      "了什么": 6510,
      "伊莎": 6511,
      "君焰": 6512,
      "味道": 6513,
      "在海": 6514,
      "实验": 6515,
      "给路明非": 6516,
      "要去": 6517,
      "贵的": 6518,
      "源稚生的": 6519,
      "沙漠之鹰": 6520,
      "伊莎贝": 6521,
      "’的": 6522,
      "。他的": 6523,
      "一种": 6524,
      "人都": 6525,
      "仍然": 6526,
      "他。\r\n": 6527,
      "列车": 6528,
      "坚硬": 6529,
      "就有": 6530,
      "是最": 6531,
      "苏小": 6532,
      "范围": 6533,
      "讨论": 6534,
      "辈子": 6535,
      "。”路鸣泽": 6536,
      "的，我": 6537,
      "为君": 6538,
      "低头": 6539,
      "力地": 6540,
      "包括": 6541,
      "十二": 6542,
      "另一个": 6543,
      "吼叫": 6544,
      "四面": 6545,
      "对我": 6546,
      "悄悄": 6547,
      "有着": 6548,
      "歌舞": 6549,
      "比较": 6550,
      "用的": 6551,
      "的孩子": 6552,
      "相比": 6553,
      "笑，“": 6554,
      "笼罩": 6555,
      "红井": 6556,
      "自由": 6557,
      "舞王": 6558,
      "迪里": 6559,
      "那一": 6560,
      "隔着": 6561,
      "一件": 6562,
      "之王": 6563,
      "人们": 6564,
      "十年": 6565,
      "回荡": 6566,
      "坚持": 6567,
      "少年": 6568,
      "拉着": 6569,
      "暂时": 6570,
      "死死": 6571,
      "突破": 6572,
      "，会": 6573,
      "，他是": 6574,
      "那个人": 6575,
      "▁但为君": 6576,
      "狮心会": 6577,
      "静静地": 6578,
      "斯特号": 6579,
      "▁但为君故": 6580,
      "一道": 6581,
      "个小时": 6582,
      "也能": 6583,
      "亚历": 6584,
      "冲击": 6585,
      "呢？”\r\n": 6586,
      "在路明非": 6587,
      "推开": 6588,
      "早就": 6589,
      "看过": 6590,
      "，当": 6591,
      "，无论": 6592,
      "低声说。\r\n": 6593,
      "办公室": 6594,
      "亚历山大": 6595,
      "了么？": 6596,
      "从来": 6597,
      "你在": 6598,
      "关于": 6599,
      "把自己": 6600,
      "气，": 6601,
      "沉重的": 6602,
      "点，": 6603,
      "的天": 6604,
      "的车": 6605,
      "神社": 6606,
      "证明": 6607,
      "造成": 6608,
      "酒店": 6609,
      "轻轻地": 6610,
      "一旦": 6611,
      "不由": 6612,
      "中年": 6613,
      "咆哮": 6614,
      "啊！”": 6615,
      "小暮": 6616,
      "屁股": 6617,
      "惊恐": 6618,
      "有时候": 6619,
      "没能": 6620,
      "现实": 6621,
      "留在": 6622,
      "的表情": 6623,
      "稳定": 6624,
      "蒸汽": 6625,
      "觉察": 6626,
      "香槟": 6627,
      "12": 6628,
      "一位": 6629,
      "了？": 6630,
      "代表": 6631,
      "做到": 6632,
      "几秒钟": 6633,
      "基本": 6634,
      "撕裂": 6635,
      "新闻": 6636,
      "的头": 6637,
      "的言灵": 6638,
      "着那": 6639,
      "笑。\r\n": 6640,
      "耳朵": 6641,
      "说什么": 6642,
      "道路": 6643,
      "龙骨": 6644,
      "，很": 6645,
      "。”芬格尔": 6646,
      "，就算": 6647,
      ")\r\n": 6648,
      "。从": 6649,
      "不错": 6650,
      "代价": 6651,
      "员们": 6652,
      "尼亚": 6653,
      "德拉": 6654,
      "樱花": 6655,
      "的名字": 6656,
      "看不到": 6657,
      "短信": 6658,
      "经验": 6659,
      "薯片": 6660,
      "表面": 6661,
      "贴着": 6662,
      "那位": 6663,
      "雅斯特号": 6664,
      "飞行": 6665,
      "，可是": 6666,
      "迪里雅斯特号": 6667,
      "。“": 6668,
      "吃饭": 6669,
      "墨瞳": 6670,
      "密集": 6671,
      "摸出": 6672,
      "的红": 6673,
      "计算": 6674,
      "诺顿": 6675,
      "走，": 6676,
      "，高": 6677,
      "樱井小暮": 6678,
      "服务生": 6679,
      "。这种": 6680,
      "允许": 6681,
      "公主": 6682,
      "关闭": 6683,
      "即便": 6684,
      "啊！”\r\n": 6685,
      "孩子，": 6686,
      "崩溃": 6687,
      "摇晃": 6688,
      "流淌": 6689,
      "的女人": 6690,
      "难怪": 6691,
      "鞠躬": 6692,
      "，此刻": 6693,
      "，否则": 6694,
      "女孩们": 6695,
      "回事": 6696,
      "图书": 6697,
      "姐姐": 6698,
      "婚礼": 6699,
      "尼尔": 6700,
      "影子": 6701,
      "扭曲": 6702,
      "接触": 6703,
      "无表情": 6704,
      "罗马": 6705,
      "血液": 6706,
      "过了": 6707,
      "进行": 6708,
      "陈墨瞳": 6709,
      "，正": 6710,
      "▁“哦": 6711,
      "。”施耐德": 6712,
      "了，可": 6713,
      "什么都": 6714,
      "，也是": 6715,
      "研究所": 6716,
      "苏小妍": 6717,
      "下去，": 6718,
      "两人": 6719,
      "中最": 6720,
      "亲自": 6721,
      "今夜": 6722,
      "伸出": 6723,
      "位于": 6724,
      "名叫": 6725,
      "回家": 6726,
      "就该": 6727,
      "提着": 6728,
      "的美": 6729,
      "给她": 6730,
      "船长": 6731,
      "说了": 6732,
      "首先": 6733,
      "▁“所以": 6734,
      "日本分部": 6735,
      "意识地": 6736,
      "加图索家的": 6737,
      "▁但为君故(": 6738,
      "▁乌鸦": 6739,
      "不再": 6740,
      "做的": 6741,
      "几分钟": 6742,
      "即将": 6743,
      "幻觉": 6744,
      "意大": 6745,
      "改变": 6746,
      "档案": 6747,
      "此时": 6748,
      "的路": 6749,
      "穿了": 6750,
      "膝盖": 6751,
      "贵族": 6752,
      "醒来": 6753,
      "量的": 6754,
      "，都": 6755,
      "，不知道": 6756,
      "200": 6757,
      "ar": 6758,
      "·加图索": 6759,
      "不朽": 6760,
      "会把": 6761,
      "偶尔": 6762,
      "合适": 6763,
      "校园": 6764,
      "管道": 6765,
      "贵宾": 6766,
      "远远": 6767,
      "，带着": 6768,
      "什么东西": 6769,
      "为什么要": 6770,
      "暴走族": 6771,
      "一年": 6772,
      "一辆": 6773,
      "中文": 6774,
      "动的": 6775,
      "千年": 6776,
      "因此": 6777,
      "导弹": 6778,
      "我也": 6779,
      "找不到": 6780,
      "父母": 6781,
      "疯子": 6782,
      "轻易": 6783,
      "，小": 6784,
      "，更": 6785,
      "，“我们": 6786,
      "怎么办": 6787,
      "一样的": 6788,
      "图书馆": 6789,
      "▁如果": 6790,
      "▁布宁": 6791,
      "。不过": 6792,
      "一座": 6793,
      "一支": 6794,
      "信任": 6795,
      "出门": 6796,
      "利爪": 6797,
      "力的": 6798,
      "在你": 6799,
      "拔出": 6800,
      "武士": 6801,
      "社会": 6802,
      "神色": 6803,
      "笑着": 6804,
      "精英": 6805,
      "的人生": 6806,
      "出来。\r\n": 6807,
      "……”路明非": 6808,
      "学生会主席": 6809,
      "意大利": 6810,
      "一脚": 6811,
      "不安": 6812,
      "了。他": 6813,
      "区域": 6814,
      "形的": 6815,
      "思考": 6816,
      "文字": 6817,
      "杀人": 6818,
      "模糊": 6819,
      "海德拉": 6820,
      "满是": 6821,
      "的状态": 6822,
      "着他的": 6823,
      "，总": 6824,
      "不如": 6825,
      "为何": 6826,
      "前面": 6827,
      "就把": 6828,
      "干净": 6829,
      "心跳": 6830,
      "放心": 6831,
      "无人": 6832,
      "点头，": 6833,
      "狂奔": 6834,
      "神情": 6835,
      "结局": 6836,
      "运转": 6837,
      "雪地": 6838,
      "▁“嗯": 6839,
      "世界上最": 6840,
      "天鹅港": 6841,
      "天而降": 6842,
      "or": 6843,
      "了！”": 6844,
      "判断": 6845,
      "卧室": 6846,
      "啤酒": 6847,
      "壁画": 6848,
      "显示": 6849,
      "来这里": 6850,
      "毫不": 6851,
      "氧气": 6852,
      "用了": 6853,
      "的男孩": 6854,
      "老家伙": 6855,
      "舞蹈": 6856,
      "躺在": 6857,
      "遇到": 6858,
      "集中": 6859,
      "，可以": 6860,
      "任何人": 6861,
      "根本不": 6862,
      "漆黑的": 6863,
      "歌舞伎": 6864,
      "中学": 6865,
      "为你": 6866,
      "元老": 6867,
      "后退": 6868,
      "天的": 6869,
      "女生": 6870,
      "幸福": 6871,
      "强大的": 6872,
      "杀了": 6873,
      "检查": 6874,
      "真的是": 6875,
      "科学": 6876,
      "随便": 6877,
      "▁“对": 6878,
      "忽然间": 6879,
      "，她的": 6880,
      "ak": 6881,
      "下面": 6882,
      "不喜欢": 6883,
      "为他": 6884,
      "他妈的": 6885,
      "大学": 6886,
      "帮我": 6887,
      "把她": 6888,
      "支撑": 6889,
      "是“": 6890,
      "某些": 6891,
      "模样": 6892,
      "没事": 6893,
      "经理": 6894,
      "脖子": 6895,
      "训练": 6896,
      "跟她": 6897,
      "返回": 6898,
      "这里，": 6899,
      "连续": 6900,
      "，眼": 6901,
      "，其实": 6902,
      "有一天": 6903,
      "围绕着": 6904,
      "一层": 6905,
      "从天而降": 6906,
      "传说": 6907,
      "八方": 6908,
      "加速": 6909,
      "呢？”": 6910,
      "手。\r\n": 6911,
      "爱情": 6912,
      "的花": 6913,
      "诡异": 6914,
      "边缘": 6915,
      "过程": 6916,
      "透着": 6917,
      "门口": 6918,
      "风格": 6919,
      "▁“这是": 6920,
      "的人都": 6921,
      "”\r\n": 6922,
      "一丝": 6923,
      "下。\r\n": 6924,
      "光，": 6925,
      "听说": 6926,
      "的速度": 6927,
      "箱子": 6928,
      "耳机": 6929,
      "这东西": 6930,
      "道理": 6931,
      "阴影": 6932,
      "黑天鹅港": 6933,
      "其他人": 6934,
      "一口": 6935,
      "也就": 6936,
      "使劲": 6937,
      "前进": 6938,
      "北京": 6939,
      "反复": 6940,
      "唯有": 6941,
      "承认": 6942,
      "气。\r\n": 6943,
      "温度": 6944,
      "经历": 6945,
      "路明非，": 6946,
      "日本人": 6947,
      "低声说，“": 6948,
      "高跟鞋": 6949,
      "了顿": 6950,
      "交给": 6951,
      "吃了一": 6952,
      "在她": 6953,
      "女朋友": 6954,
      "左右": 6955,
      "强的": 6956,
      "意味": 6957,
      "拍了": 6958,
      "海底": 6959,
      "特殊": 6960,
      "电视": 6961,
      "看，": 6962,
      "级别": 6963,
      "车厢": 6964,
      "这才": 6965,
      "那东西": 6966,
      "龙马": 6967,
      "，大家": 6968,
      "，除了": 6969,
      "。但是": 6970,
      "呆呆地看着": 6971,
      "’，": 6972,
      "。虽然": 6973,
      "例外": 6974,
      "包围": 6975,
      "又是": 6976,
      "小小的": 6977,
      "往往": 6978,
      "心理": 6979,
      "楼梯": 6980,
      "没错": 6981,
      "登上": 6982,
      "的世界": 6983,
      "着“": 6984,
      "腰间": 6985,
      "覆盖": 6986,
      "语言": 6987,
      "诸位": 6988,
      "远比": 6989,
      "顿了顿": 6990,
      "根本没有": 6991,
      "，有些": 6992,
      "大吼。\r\n": 6993,
      "13号": 6994,
      "一般": 6995,
      "伟大的": 6996,
      "保安": 6997,
      "停止": 6998,
      "区别": 6999,
      "命中": 7000,
      "好好": 7001,
      "开启": 7002,
      "思议": 7003,
      "意志": 7004,
      "懒得": 7005,
      "欧洲": 7006,
      "活动": 7007,
      "照顾": 7008,
      "的冰": 7009,
      "相当": 7010,
      "睡着": 7011,
      "糟糕": 7012,
      "结构": 7013,
      "说他": 7014,
      "轻松": 7015,
      "还会": 7016,
      "队的": 7017,
      "，你的": 7018,
      "不过是": 7019,
      "面前，": 7020,
      "一块": 7021,
      "事实": 7022,
      "人在": 7023,
      "停下": 7024,
      "剧烈": 7025,
      "地铁": 7026,
      "大口": 7027,
      "干部": 7028,
      "引擎": 7029,
      "弹匣": 7030,
      "恰好": 7031,
      "情绪": 7032,
      "操作": 7033,
      "收拾": 7034,
      "教堂": 7035,
      "最近": 7036,
      "疯狂": 7037,
      "的那个": 7038,
      "看清": 7039,
      "网吧": 7040,
      "见面": 7041,
      "讨厌": 7042,
      "，有人": 7043,
      "。”他": 7044,
      "？”楚子航": 7045,
      "，一边": 7046,
      "一枚": 7047,
      "了很多": 7048,
      "听着": 7049,
      "多久": 7050,
      "威严": 7051,
      "孵化": 7052,
      "店长": 7053,
      "强行": 7054,
      "把你": 7055,
      "指着": 7056,
      "收到": 7057,
      "新生": 7058,
      "梦境": 7059,
      "死在": 7060,
      "独自": 7061,
      "的面": 7062,
      "科考": 7063,
      "筹码": 7064,
      "胳膊": 7065,
      "萨沙": 7066,
      "让你": 7067,
      "轨道": 7068,
      "！我们": 7069,
      "，全": 7070,
      "，并": 7071,
      "了，她": 7072,
      "，但在": 7073,
      "耸耸肩，“": 7074,
      "抬起头": 7075,
      "四面八方": 7076,
      "。源稚生": 7077,
      "内部": 7078,
      "凝视": 7079,
      "反而": 7080,
      "复活": 7081,
      "店里": 7082,
      "房间": 7083,
      "握着": 7084,
      "枪口": 7085,
      "熄灭": 7086,
      "的眼神": 7087,
      "酒，": 7088,
      "钢铁": 7089,
      "银行": 7090,
      "难过": 7091,
      "靠着": 7092,
      "面无表情": 7093,
      "，同时": 7094,
      "……你": 7095,
      "，可他": 7096,
      "。”路明非说。\r\n": 7097,
      "伊莎贝尔": 7098,
      "一头": 7099,
      "停在": 7100,
      "入侵": 7101,
      "去找": 7102,
      "恶魔": 7103,
      "想过": 7104,
      "抓起": 7105,
      "权力": 7106,
      "武装": 7107,
      "没想到": 7108,
      "生意": 7109,
      "痕迹": 7110,
      "级别的": 7111,
      "美女": 7112,
      "谢谢": 7113,
      "进来，": 7114,
      "那间": 7115,
      "阻止": 7116,
      "随手": 7117,
      "鱼雷": 7118,
      "！”诺诺": 7119,
      "是一场": 7120,
      "明白了，": 7121,
      "一声": 7122,
      "上下": 7123,
      "专家": 7124,
      "古尼尔": 7125,
      "合作": 7126,
      "喝着": 7127,
      "图京": 7128,
      "场，": 7129,
      "密码": 7130,
      "抽出": 7131,
      "法国": 7132,
      "瓦图京": 7133,
      "第三": 7134,
      "答应": 7135,
      "纷纷": 7136,
      "老妈": 7137,
      "走向": 7138,
      "身后": 7139,
      "震动": 7140,
      "，别": 7141,
      "么？你": 7142,
      "么？\r\n": 7143,
      "卡塞尔学院的": 7144,
      "历史上": 7145,
      "死死地": 7146,
      "’级": 7147,
      "▁零": 7148,
      "上升": 7149,
      "下来的": 7150,
      "不像": 7151,
      "举起": 7152,
      "列宁": 7153,
      "却是": 7154,
      "威力": 7155,
      "封闭": 7156,
      "当作": 7157,
      "打电话": 7158,
      "时，": 7159,
      "缓慢": 7160,
      "要不要": 7161,
      "说：“": 7162,
      "身，": 7163,
      "遗憾": 7164,
      "锁定": 7165,
      "鹦鹉": 7166,
      "，于是": 7167,
      "。”布宁": 7168,
      "恺撒和楚子航": 7169,
      "出现了": 7170,
      "重要的": 7171,
      "拍了拍": 7172,
      "30": 7173,
      "一名": 7174,
      "中心": 7175,
      "也在": 7176,
      "仕兰": 7177,
      "关键": 7178,
      "利刃": 7179,
      "加入": 7180,
      "发，": 7181,
      "呢？\r\n": 7182,
      "在冰": 7183,
      "地球": 7184,
      "想办法": 7185,
      "昆古尼尔": 7186,
      "水，": 7187,
      "法拉": 7188,
      "看到了": 7189,
      "船舱": 7190,
      "见到": 7191,
      "视线": 7192,
      "风暴": 7193,
      "高中": 7194,
      "，无": 7195,
      "▁“有": 7196,
      "，我是": 7197,
      "，你是": 7198,
      "，可能": 7199,
      "蜘蛛切": 7200,
      "交通": 7201,
      "侍者": 7202,
      "兴奋": 7203,
      "唐威": 7204,
      "啊？": 7205,
      "啊。”\r\n": 7206,
      "对不对": 7207,
      "尽管": 7208,
      "废墟": 7209,
      "源氏": 7210,
      "然而": 7211,
      "起伏": 7212,
      "身的": 7213,
      "送到": 7214,
      "防御": 7215,
      "，他在": 7216,
      "已经是": 7217,
      "怎么能": 7218,
      "么？我": 7219,
      "根本就是": 7220,
      "客人们": 7221,
      "这座城市": 7222,
      "每个人都": 7223,
      "神秘的": 7224,
      "万美元": 7225,
      "不行": 7226,
      "严肃": 7227,
      "了这": 7228,
      "产生": 7229,
      "以来": 7230,
      "优势": 7231,
      "小组": 7232,
      "弹头": 7233,
      "战术": 7234,
      "打着": 7235,
      "把我": 7236,
      "抬头": 7237,
      "数据": 7238,
      "最好的": 7239,
      "有多": 7240,
      "来找": 7241,
      "玩笑": 7242,
      "管理": 7243,
      "索尼": 7244,
      "给自己": 7245,
      "艺术": 7246,
      "苍白": 7247,
      "说起来": 7248,
      "那家伙": 7249,
      "队长": 7250,
      "，都是": 7251,
      "▁“真": 7252,
      "。”零": 7253,
      "？”芬格尔": 7254,
      "，这里": 7255,
      "一直在": 7256,
      "▁这时": 7257,
      "▁S": 7258,
      "。这些": 7259,
      "之外": 7260,
      "加哥": 7261,
      "可怜": 7262,
      "和诺诺": 7263,
      "式的": 7264,
      "很想": 7265,
      "整齐": 7266,
      "明显": 7267,
      "的电": 7268,
      "看作": 7269,
      "笔直": 7270,
      "米的": 7271,
      "芝加哥": 7272,
      "落，": 7273,
      "逻辑": 7274,
      "骄傲": 7275,
      "这么做": 7276,
      "一样，": 7277,
      "也不知道": 7278,
      "黑暗中": 7279,
      "02": 7280,
      "以后": 7281,
      "价格": 7282,
      "做了": 7283,
      "全力": 7284,
      "分析": 7285,
      "场的": 7286,
      "婴儿": 7287,
      "寂静": 7288,
      "年纪": 7289,
      "张开": 7290,
      "指向": 7291,
      "提醒": 7292,
      "的朋友": 7293,
      "结婚": 7294,
      "适合": 7295,
      "重工": 7296,
      "黑王": 7297,
      "，真": 7298,
      "只是个": 7299,
      "屏幕上": 7300,
      "点了点头": 7301,
      "鹦鹉螺": 7302,
      "下意识地": 7303,
      "人群": 7304,
      "休息": 7305,
      "失败": 7306,
      "对话": 7307,
      "来说，": 7308,
      "欢迎": 7309,
      "欣赏": 7310,
      "男生": 7311,
      "的年轻人": 7312,
      "瞄准": 7313,
      "色，": 7314,
      "裂缝": 7315,
      "递给": 7316,
      "遭遇": 7317,
      "那辆": 7318,
      "野兽": 7319,
      "，对于": 7320,
      "不断地": 7321,
      "吃了一惊": 7322,
      "鹦鹉螺号": 7323,
      "15": 7324,
      "一柄": 7325,
      "一生": 7326,
      "介绍": 7327,
      "他已经": 7328,
      "你，": 7329,
      "出口": 7330,
      "去了": 7331,
      "夜里": 7332,
      "客户": 7333,
      "巫女": 7334,
      "想的": 7335,
      "明天": 7336,
      "是被": 7337,
      "死神": 7338,
      "每次": 7339,
      "走进": 7340,
      "那帮": 7341,
      "雪橇": 7342,
      "了，”": 7343,
      "女孩的": 7344,
      "昂热的": 7345,
      "眼睛。\r\n": 7346,
      "龙族的": 7347,
      "漂亮的": 7348,
      "不朽者": 7349,
      "从不": 7350,
      "各位": 7351,
      "名为": 7352,
      "吧。”\r\n": 7353,
      "喉咙": 7354,
      "在东京": 7355,
      "太过": 7356,
      "女性": 7357,
      "家庭": 7358,
      "手腕": 7359,
      "时刻": 7360,
      "是从": 7361,
      "来看": 7362,
      "目的": 7363,
      "着一个": 7364,
      "称作": 7365,
      "竖起": 7366,
      "翻滚": 7367,
      "说这": 7368,
      "黑蛇": 7369,
      "，当然": 7370,
      "。”乌鸦": 7371,
      "了，他们": 7372,
      "的声音。\r\n": 7373,
      "师兄你": 7374,
      "危险的": 7375,
      "不可思议": 7376,
      "北极圈": 7377,
      "口袋里": 7378,
      "做不到": 7379,
      "几次": 7380,
      "剩下的": 7381,
      "回了": 7382,
      "在日本": 7383,
      "少爷": 7384,
      "就得": 7385,
      "工具": 7386,
      "往前": 7387,
      "性格": 7388,
      "总会": 7389,
      "抚摸": 7390,
      "政府": 7391,
      "来了，": 7392,
      "潜艇": 7393,
      "的‘": 7394,
      "米，": 7395,
      "让她": 7396,
      "资格": 7397,
      "通讯": 7398,
      "里。": 7399,
      "雨水": 7400,
      "这么说": 7401,
      "索尼娅": 7402,
      "――": 7403,
      "亿美元": 7404,
      "刀剑": 7405,
      "和我": 7406,
      "和芬格尔": 7407,
      "大喊": 7408,
      "天，": 7409,
      "封锁": 7410,
      "意地": 7411,
      "战士": 7412,
      "新娘": 7413,
      "是有": 7414,
      "来。": 7415,
      "格鲁": 7416,
      "沉重": 7417,
      "深潜": 7418,
      "猜测": 7419,
      "直视": 7420,
      "耶梦": 7421,
      "能把": 7422,
      "血管": 7423,
      "血腥": 7424,
      "身材": 7425,
      "逃亡": 7426,
      "都不会": 7427,
      "，但她": 7428,
      "这个世界上": 7429,
      "脚步声": 7430,
      "ura": 7431,
      "一杯": 7432,
      "一瞬间": 7433,
      "七海": 7434,
      "不需要": 7435,
      "两侧": 7436,
      "之下": 7437,
      "了出来，": 7438,
      "会不会": 7439,
      "伤害": 7440,
      "加得": 7441,
      "压力": 7442,
      "双臂": 7443,
      "地上": 7444,
      "导致": 7445,
      "小时候": 7446,
      "巨大": 7447,
      "广告": 7448,
      "惊人的": 7449,
      "打量": 7450,
      "森特": 7451,
      "水银": 7452,
      "特加": 7453,
      "画面": 7454,
      "的能力": 7455,
      "的金属": 7456,
      "细节": 7457,
      "！他": 7458,
      "akura": 7459,
      "耶梦加得": 7460,
      "▁这种": 7461,
      "不愿意": 7462,
      "主人": 7463,
      "了这个": 7464,
      "仰望": 7465,
      "保证": 7466,
      "十字": 7467,
      "叫人": 7468,
      "吸引": 7469,
      "和他": 7470,
      "哪怕": 7471,
      "嘴唇": 7472,
      "坐下，": 7473,
      "强大": 7474,
      "德国": 7475,
      "搜索": 7476,
      "撞击": 7477,
      "文森特": 7478,
      "早晨": 7479,
      "每天": 7480,
      "气息": 7481,
      "深深": 7482,
      "火光": 7483,
      "环境": 7484,
      "线，": 7485,
      "至今": 7486,
      "舞台": 7487,
      "调查": 7488,
      "走出": 7489,
      "跑车": 7490,
      "跳舞": 7491,
      "还未": 7492,
      "▁“他们": 7493,
      "居然是": 7494,
      "注意到": 7495,
      "3号城市": 7496,
      "023号城市": 7497,
      "do": 7498,
      "一路": 7499,
      "互相": 7500,
      "他也": 7501,
      "公路": 7502,
      "去看": 7503,
      "大了": 7504,
      "奔跑": 7505,
      "幕后": 7506,
      "成员": 7507,
      "手术": 7508,
      "手的": 7509,
      "提前": 7510,
      "火箭": 7511,
      "的……": 7512,
      "窗户": 7513,
      "自我": 7514,
      "那支": 7515,
      "隐藏": 7516,
      "，倒": 7517,
      "，长": 7518,
      "，芬格尔": 7519,
      "▁“因为": 7520,
      "完全不": 7521,
      "樱井七海": 7522,
      "老板娘": 7523,
      "亚历山大·": 7524,
      "源氏重工": 7525,
      "at": 7526,
      "▁那是": 7527,
      "优雅": 7528,
      "刀柄": 7529,
      "到这里": 7530,
      "压制": 7531,
      "另外": 7532,
      "咖啡": 7533,
      "噩梦": 7534,
      "回忆": 7535,
      "团队": 7536,
      "姿势": 7537,
      "完整": 7538,
      "对付": 7539,
      "巨型": 7540,
      "度的": 7541,
      "玩具": 7542,
      "玫瑰": 7543,
      "的，他": 7544,
      "看得": 7545,
      "着。\r\n": 7546,
      "确认": 7547,
      "转向": 7548,
      "这边": 7549,
      "难得": 7550,
      "龙化": 7551,
      "，您": 7552,
      "，比如": 7553,
      "的人类": 7554,
      "，一切": 7555,
      "，只不过": 7556,
      "背后的": 7557,
      "一眼，": 7558,
      "奇怪的": 7559,
      "冷冷地": 7560,
      "渐渐地": 7561,
      "完美的": 7562,
      "迅速地": 7563,
      "*\r\n": 7564,
      "▁从": 7565,
      "一刀": 7566,
      "一颗": 7567,
      "不久": 7568,
      "严重": 7569,
      "伪装": 7570,
      "似的，": 7571,
      "圣骸": 7572,
      "处在": 7573,
      "年级": 7574,
      "形成": 7575,
      "想来": 7576,
      "想着": 7577,
      "投影": 7578,
      "放下": 7579,
      "明亮": 7580,
      "牛逼": 7581,
      "畏惧": 7582,
      "眺望": 7583,
      "网络": 7584,
      "考试": 7585,
      "表演": 7586,
      "规则": 7587,
      "逃走": 7588,
      "，像": 7589,
      "，为了": 7590,
      "，每个": 7591,
      "的黑色": 7592,
      "的气息": 7593,
      "***\r\n": 7594,
      "此时此刻": 7595,
      "me": 7596,
      "▁”": 7597,
      "▁***\r\n": 7598,
      "一群": 7599,
      "不少": 7600,
      "了吧？": 7601,
      "事件": 7602,
      "介意": 7603,
      "伏特加": 7604,
      "坐着": 7605,
      "处理": 7606,
      "复杂": 7607,
      "失控": 7608,
      "完了": 7609,
      "就只有": 7610,
      "怪兽": 7611,
      "拍拍": 7612,
      "摄像": 7613,
      "无所谓": 7614,
      "暴怒": 7615,
      "暴风雨": 7616,
      "的外": 7617,
      "的死侍": 7618,
      "相互": 7619,
      "耳边": 7620,
      "自动": 7621,
      "舒服": 7622,
      "血清": 7623,
      "证据": 7624,
      "说不": 7625,
      "这张": 7626,
      "这句话": 7627,
      "面上，": 7628,
      "▁“但": 7629,
      "了，那": 7630,
      "这个世界": 7631,
      "，它的": 7632,
      "微微一": 7633,
      "亚历山大·布宁": 7634,
      "▁K": 7635,
      "也可以": 7636,
      "作用": 7637,
      "关心": 7638,
      "厉害": 7639,
      "受伤": 7640,
      "只会": 7641,
      "君主": 7642,
      "呼叫": 7643,
      "对面": 7644,
      "就这么": 7645,
      "开着": 7646,
      "心情": 7647,
      "教育": 7648,
      "数字": 7649,
      "时的": 7650,
      "脚下": 7651,
      "荡荡": 7652,
      "过。\r\n": 7653,
      "过去，": 7654,
      "通往": 7655,
      "，手": 7656,
      "怎么回事": 7657,
      "根本就": 7658,
      "一定会": 7659,
      "淡淡地说，“": 7660,
      "的样子": 7661,
      "18": 7662,
      "Sakura": 7663,
      "▁t": 7664,
      "▁其实": 7665,
      "专业": 7666,
      "亲爱的": 7667,
      "卫星": 7668,
      "在自己": 7669,
      "寻找": 7670,
      "将来": 7671,
      "当初": 7672,
      "把手": 7673,
      "招呼": 7674,
      "最好": 7675,
      "木村": 7676,
      "本部": 7677,
      "机，": 7678,
      "沉睡": 7679,
      "的就是": 7680,
      "着脸": 7681,
      "被他": 7682,
      "身躯": 7683,
      "都知道": 7684,
      "高架": 7685,
      "，昂热": 7686,
      "▁“在": 7687,
      "。”苏恩曦": 7688,
      "没有什么": 7689,
      "意思是": 7690,
      "动力舱": 7691,
      "意味着": 7692,
      "el": 7693,
      "ou": 7694,
      "▁T": 7695,
      "▁真": 7696,
      "下令": 7697,
      "不仅": 7698,
      "不着": 7699,
      "厚的": 7700,
      "吞噬": 7701,
      "嘶哑": 7702,
      "外面的": 7703,
      "尖叫": 7704,
      "心中": 7705,
      "忍者": 7706,
      "愣了一下，": 7707,
      "放松": 7708,
      "机器": 7709,
      "极限": 7710,
      "老唐": 7711,
      "艘船": 7712,
      "英灵": 7713,
      "警觉": 7714,
      "透明": 7715,
      "通知": 7716,
      "降临": 7717,
      "一切都": 7718,
      "叹了口气，“": 7719,
      "列宁号": 7720,
      "低沉": 7721,
      "你就": 7722,
      "响，": 7723,
      "坦克": 7724,
      "多么": 7725,
      "头上": 7726,
      "岩浆": 7727,
      "往外": 7728,
      "我会": 7729,
      "拜托": 7730,
      "挥手": 7731,
      "接过": 7732,
      "提升": 7733,
      "猴子": 7734,
      "疑问": 7735,
      "的船": 7736,
      "空洞": 7737,
      "试着": 7738,
      "说着": 7739,
      "配合": 7740,
      "锋利的": 7741,
      "镇静": 7742,
      "雷霆": 7743,
      "，所有": 7744,
      "的地方，": 7745,
      "▁“是的，": 7746,
      "空气中": 7747,
      "。”楚子航说。\r\n": 7748,
      "科考站": 7749,
      "格鲁乌": 7750,
      "深潜器": 7751,
      "‘S": 7752,
      "。那是": 7753,
      "一份": 7754,
      "不必": 7755,
      "你会": 7756,
      "再也": 7757,
      "同伴": 7758,
      "和恺撒": 7759,
      "哆嗦": 7760,
      "垃圾": 7761,
      "墙上": 7762,
      "头的": 7763,
      "委员": 7764,
      "并肩": 7765,
      "幽幽": 7766,
      "座城市": 7767,
      "想了": 7768,
      "扇门": 7769,
      "机枪": 7770,
      "没用": 7771,
      "眼泪": 7772,
      "睁开": 7773,
      "给了": 7774,
      "赞叹": 7775,
      "那天": 7776,
      "骨骸": 7777,
      "了，路明非": 7778,
      "自己是": 7779,
      "楚子航，": 7780,
      "不是什么": 7781,
      "摩托车": 7782,
      "le": 7783,
      "不动": 7784,
      "世上": 7785,
      "住了。\r\n": 7786,
      "你不": 7787,
      "信封": 7788,
      "凶狠": 7789,
      "她，": 7790,
      "委实": 7791,
      "孤单": 7792,
      "差点": 7793,
      "幸存": 7794,
      "抓着": 7795,
      "挂着": 7796,
      "演员": 7797,
      "然大": 7798,
      "的学生": 7799,
      "看他": 7800,
      "说完": 7801,
      "豪华": 7802,
      "那只": 7803,
      "那场": 7804,
      "骤然": 7805,
      "，我想": 7806,
      "么？”恺撒": 7807,
      "完全没有": 7808,
      "缓缓地说，“": 7809,
      "黄金瞳": 7810,
      "法拉利": 7811,
      "木村浩": 7812,
      "▁不过": 7813,
      "▁路鸣泽": 7814,
      "▁克里斯廷娜": 7815,
      "。它们": 7816,
      "一百": 7817,
      "亲眼": 7818,
      "剩下": 7819,
      "加上": 7820,
      "右京": 7821,
      "吓得": 7822,
      "听说过": 7823,
      "守夜": 7824,
      "小圆": 7825,
      "得住": 7826,
      "拉开": 7827,
      "机构": 7828,
      "楚天": 7829,
      "段时间": 7830,
      "水中": 7831,
      "深海": 7832,
      "男子": 7833,
      "的夜": 7834,
      "移动": 7835,
      "说出": 7836,
      "逃离": 7837,
      "风中": 7838,
      "风吹": 7839,
      "：\r\n": 7840,
      "▁“没有": 7841,
      "，但他们": 7842,
      "，我就": 7843,
      "知道我": 7844,
      "角落里": 7845,
      "摇头，“": 7846,
      "古老的": 7847,
      "英灵殿": 7848,
      "500": 7849,
      "▁施耐德": 7850,
      "▁雷娜塔": 7851,
      "了？”\r\n": 7852,
      "交换": 7853,
      "仰头": 7854,
      "其他的": 7855,
      "则是": 7856,
      "召唤": 7857,
      "号称": 7858,
      "回来，": 7859,
      "威胁": 7860,
      "定的": 7861,
      "息地": 7862,
      "想起来": 7863,
      "方案": 7864,
      "无一": 7865,
      "有很多": 7866,
      "杜拉": 7867,
      "灿烂": 7868,
      "猛犬": 7869,
      "生生": 7870,
      "病房": 7871,
      "笔记": 7872,
      "聚集": 7873,
      "能不能": 7874,
      "视频": 7875,
      "谈判": 7876,
      "这份": 7877,
      "龙蝰": 7878,
      "，里面": 7879,
      "！”他": 7880,
      "的，你": 7881,
      "这里的": 7882,
      "日本的": 7883,
      "，他们的": 7884,
      "身体里": 7885,
      "很多年": 7886,
      "中国人": 7887,
      "的心脏": 7888,
      "秘党的": 7889,
      "一愣。\r\n": 7890,
      "照亮了": 7891,
      "楚天骄": 7892,
      "id": 7893,
      "了上": 7894,
      "儿，": 7895,
      "合金": 7896,
      "后悔": 7897,
      "在乎": 7898,
      "安德": 7899,
      "寒冷": 7900,
      "帮他": 7901,
      "建造": 7902,
      "挂在": 7903,
      "新宿": 7904,
      "是为了": 7905,
      "极致": 7906,
      "核心": 7907,
      "激动": 7908,
      "熊熊": 7909,
      "白的": 7910,
      "的两": 7911,
      "自主": 7912,
      "船上": 7913,
      "莫名": 7914,
      "走在": 7915,
      "还想": 7916,
      "迷宫": 7917,
      "餐厅": 7918,
      "餐馆": 7919,
      "▁“你的": 7920,
      "▁“哥哥": 7921,
      "什么人": 7922,
      "：“我": 7923,
      "东京都": 7924,
      "打开了": 7925,
      "说话，": 7926,
      "淡淡地说。\r\n": 7927,
      "冲锋枪": 7928,
      "。因为": 7929,
      "一间": 7930,
      "下潜": 7931,
      "也被": 7932,
      "他自己": 7933,
      "入口": 7934,
      "力气": 7935,
      "同样": 7936,
      "尤其": 7937,
      "帮会": 7938,
      "忽略": 7939,
      "成绩": 7940,
      "支付": 7941,
      "整个人": 7942,
      "每一": 7943,
      "猎枪": 7944,
      "王座": 7945,
      "的军": 7946,
      "的古": 7947,
      "的枪": 7948,
      "罗曼": 7949,
      "聊天": 7950,
      "这就是": 7951,
      "重复": 7952,
      "野田": 7953,
      "银色的": 7954,
      "风雪": 7955,
      "，应该": 7956,
      "。”酒德麻衣": 7957,
      "。”橘政宗": 7958,
      "是一条": 7959,
      "，”路明非": 7960,
      "傻逼": 7961,
      "制的": 7962,
      "前往": 7963,
      "可乐": 7964,
      "唤醒": 7965,
      "局面": 7966,
      "得那么": 7967,
      "心。\r\n": 7968,
      "悠悠": 7969,
      "抱歉": 7970,
      "拖着": 7971,
      "拯救": 7972,
      "掉了，": 7973,
      "是不": 7974,
      "殿下": 7975,
      "温柔": 7976,
      "男朋友": 7977,
      "疼痛": 7978,
      "的死": 7979,
      "的语气": 7980,
      "竞争": 7981,
      "章\r\n": 7982,
      "美的": 7983,
      "那时候": 7984,
      "部长": 7985,
      "阿须": 7986,
      "，黑": 7987,
      "▁“当然": 7988,
      "，那种": 7989,
      "，有时候": 7990,
      "死侍的": 7991,
      "执行部的": 7992,
      "几个小时": 7993,
      "了几秒钟": 7994,
      "薯片妞": 7995,
      "罗曼诺": 7996,
      "阿须矢": 7997,
      "下午": 7998,
      "享受": 7999,
      "低了": 8000,
      "借助": 8001,
      "吐出": 8002,
      "回复": 8003,
      "在这种": 8004,
      "大腿": 8005,
      "开裂": 8006,
      "开了，": 8007,
      "把这": 8008,
      "接下来": 8009,
      "摘下": 8010,
      "有了": 8011,
      "汉高": 8012,
      "满意": 8013,
      "漫画": 8014,
      "然地": 8015,
      "牙齿": 8016,
      "的前": 8017,
      "的！": 8018,
      "看你": 8019,
      "眼的": 8020,
      "空荡荡": 8021,
      "穿透": 8022,
      "站起身": 8023,
      "类似的": 8024,
      "群的": 8025,
      "艰难": 8026,
      "行为": 8027,
      "要么": 8028,
      "警报": 8029,
      "趴在": 8030,
      "道的": 8031,
      "间的": 8032,
      "，四": 8033,
      "的人。\r\n": 8034,
      "，我会": 8035,
      "，她们": 8036,
      "的声音，": 8037,
      "&m": 8038,
      "Eva": 8039,
      "。现在": 8040,
      "一峰": 8041,
      "一身": 8042,
      "之类": 8043,
      "也都": 8044,
      "了下来，": 8045,
      "他还是": 8046,
      "会长": 8047,
      "做出": 8048,
      "刀刃": 8049,
      "动了": 8050,
      "包裹": 8051,
      "培养": 8052,
      "好奇": 8053,
      "宿舍": 8054,
      "得太": 8055,
      "心底": 8056,
      "性感": 8057,
      "愣住了，": 8058,
      "摩尼亚": 8059,
      "机的": 8060,
      "理石": 8061,
      "的结果": 8062,
      "章　": 8063,
      "第一个": 8064,
      "者，": 8065,
      "英国": 8066,
      "说法": 8067,
      "邵一峰": 8068,
      "什么的": 8069,
      "，不知": 8070,
      "是一种": 8071,
      "的东西，": 8072,
      "龙类的": 8073,
      "整个世界": 8074,
      "的那一刻": 8075,
      "的脸上": 8076,
      "的黑暗": 8077,
      "旁边的": 8078,
      "转过身": 8079,
      "摩尼亚赫": 8080,
      "60": 8081,
      "AM": 8082,
      "▁奥金涅兹": 8083,
      "为止": 8084,
      "你。”\r\n": 8085,
      "光。\r\n": 8086,
      "全都": 8087,
      "冰冷": 8088,
      "制服": 8089,
      "吧？”路明非": 8090,
      "在他们": 8091,
      "夜姬": 8092,
      "天使": 8093,
      "尴尬": 8094,
      "很不": 8095,
      "很大的": 8096,
      "政治": 8097,
      "末日": 8098,
      "机场": 8099,
      "没准": 8100,
      "浴缸": 8101,
      "用力": 8102,
      "的笑": 8103,
      "看出": 8104,
      "话，": 8105,
      "越过": 8106,
      "轰然": 8107,
      "辉夜姬": 8108,
      "里去": 8109,
      "震惊": 8110,
      "霰弹": 8111,
      "，不要": 8112,
      "出来。": 8113,
      "龙王的": 8114,
      "到底是": 8115,
      "呆呆地": 8116,
      "想了想": 8117,
      "中。": 8118,
      "乐园": 8119,
      "人。": 8120,
      "你也": 8121,
      "冈萨": 8122,
      "冰海": 8123,
      "台，": 8124,
      "和你": 8125,
      "啊！\r\n": 8126,
      "塑料": 8127,
      "女士": 8128,
      "好了，": 8129,
      "层的": 8130,
      "年代": 8131,
      "往上": 8132,
      "悬浮": 8133,
      "想必": 8134,
      "愣了一下": 8135,
      "抓住了": 8136,
      "撤离": 8137,
      "未婚": 8138,
      "本能": 8139,
      "柄刀": 8140,
      "棺材": 8141,
      "欢呼": 8142,
      "注射": 8143,
      "疲惫": 8144,
      "神官": 8145,
      "缝隙": 8146,
      "血，": 8147,
      "记住": 8148,
      "赶到": 8149,
      "足足": 8150,
      "踏入": 8151,
      "轮机": 8152,
      "轻盈": 8153,
      "达到": 8154,
      "还记得": 8155,
      "这帮": 8156,
      "部，": 8157,
      "锋利": 8158,
      "雷斯": 8159,
      "，自己": 8160,
      "▁“她": 8161,
      "……他": 8162,
      "，我的": 8163,
      "问题，": 8164,
      "顿了顿，“": 8165,
      "摩尼亚赫号": 8166,
      "冈萨雷斯": 8167,
      "▁橘政宗": 8168,
      "一半": 8169,
      "一手": 8170,
      "七八": 8171,
      "下水": 8172,
      "仓库": 8173,
      "代种": 8174,
      "分别": 8175,
      "切割": 8176,
      "双翼": 8177,
      "叫我": 8178,
      "回到了": 8179,
      "圣诞": 8180,
      "守望": 8181,
      "少数": 8182,
      "数以": 8183,
      "是否": 8184,
      "有过": 8185,
      "有钱": 8186,
      "有限": 8187,
      "有一个": 8188,
      "核动力舱": 8189,
      "步，": 8190,
      "水下": 8191,
      "淹没": 8192,
      "眼，": 8193,
      "确保": 8194,
      "线索": 8195,
      "美丽": 8196,
      "英俊": 8197,
      "让他们": 8198,
      "试试": 8199,
      "足以": 8200,
      "身穿": 8201,
      "还真": 8202,
      "门的": 8203,
      "零的": 8204,
      "顶级": 8205,
      "高，": 8206,
      "▁“那么": 8207,
      "，他也": 8208,
      "眼睛里": 8209,
      "大家都": 8210,
      "安德鲁": 8211,
      "▁B": 8212,
      "一家": 8213,
      "不停": 8214,
      "从小": 8215,
      "会是": 8216,
      "勇气": 8217,
      "十八": 8218,
      "半个": 8219,
      "吧？\r\n": 8220,
      "型的": 8221,
      "基地": 8222,
      "把握": 8223,
      "拿出": 8224,
      "捕获": 8225,
      "死人": 8226,
      "活下去": 8227,
      "港口": 8228,
      "状况": 8229,
      "的龙": 8230,
      "监视": 8231,
      "站着": 8232,
      "算什么": 8233,
      "脱离": 8234,
      "辛苦": 8235,
      "透过": 8236,
      "那双": 8237,
      "闪电": 8238,
      "青色的": 8239,
      "，已经": 8240,
      "▁“这个": 8241,
      "，这时候": 8242,
      "那个女孩": 8243,
      "，一直": 8244,
      "清楚地": 8245,
      "上杉家主": 8246,
      "起身，": 8247,
      "显然是": 8248,
      "恐怖的": 8249,
      "自主地": 8250,
      "罗曼诺夫": 8251,
      "11": 8252,
      "AL": 8253,
      "YAM": 8254,
      "ad": 8255,
      "▁虽然": 8256,
      "一枪": 8257,
      "下达": 8258,
      "内衣": 8259,
      "分裂": 8260,
      "到现在": 8261,
      "危机": 8262,
      "四个": 8263,
      "在一个": 8264,
      "对她": 8265,
      "平衡": 8266,
      "座位": 8267,
      "异常": 8268,
      "强化": 8269,
      "快要": 8270,
      "情人": 8271,
      "我已经": 8272,
      "手枪": 8273,
      "无所": 8274,
      "有那么": 8275,
      "杀戮": 8276,
      "混合": 8277,
      "温泉": 8278,
      "火山": 8279,
      "烈焰": 8280,
      "爆发": 8281,
      "物，": 8282,
      "现场": 8283,
      "男女": 8284,
      "示意": 8285,
      "绝大": 8286,
      "翼翼": 8287,
      "脸，": 8288,
      "蓝色": 8289,
      "踩着": 8290,
      "辆车": 8291,
      "还得": 8292,
      "还以为": 8293,
      "高举": 8294,
      "，去": 8295,
      "，“如果": 8296,
      "了一口气": 8297,
      "说，“你": 8298,
      "出来的，": 8299,
      "这些人": 8300,
      "，因为他": 8301,
      "死侍群": 8302,
      "的脸色": 8303,
      "小心翼翼": 8304,
      "守夜人": 8305,
      "AL号": 8306,
      "YAMAL号": 8307,
      "ara": 8308,
      "体，": 8309,
      "冷汗": 8310,
      "名单": 8311,
      "响起": 8312,
      "好吧": 8313,
      "好像是": 8314,
      "安慰": 8315,
      "对抗": 8316,
      "快乐": 8317,
      "想法": 8318,
      "感受": 8319,
      "所在": 8320,
      "换了": 8321,
      "日子": 8322,
      "欺负": 8323,
      "残酷": 8324,
      "狮子": 8325,
      "留下的": 8326,
      "的酒": 8327,
      "视野": 8328,
      "项目": 8329,
      "高处": 8330,
      "！这": 8331,
      "，露出": 8332,
      "。”曼施坦因": 8333,
      "，但这": 8334,
      "政宗先生": 8335,
      "，每个人": 8336,
      "毫无疑问": 8337,
      "打了个寒": 8338,
      "仕兰中学": 8339,
      "▁King": 8340,
      "▁它": 8341,
      "也得": 8342,
      "了你": 8343,
      "冰洋": 8344,
      "冷静": 8345,
      "北冰洋": 8346,
      "占据": 8347,
      "哪个": 8348,
      "场面": 8349,
      "大叔": 8350,
      "大蛇": 8351,
      "大雨": 8352,
      "奔驰": 8353,
      "平安": 8354,
      "幸运": 8355,
      "建立": 8356,
      "意见": 8357,
      "故意": 8358,
      "有关": 8359,
      "极乐": 8360,
      "每年": 8361,
      "激光": 8362,
      "灰尘": 8363,
      "甲板": 8364,
      "的工作": 8365,
      "短弧": 8366,
      "稍微": 8367,
      "穿过": 8368,
      "纯粹": 8369,
      "行，": 8370,
      "街头": 8371,
      "起的": 8372,
      "跟路明非": 8373,
      "路的": 8374,
      "门。\r\n": 8375,
      "阻挡": 8376,
      "，怎么": 8377,
      "，看着": 8378,
      "▁“恺撒": 8379,
      "▁“怎么": 8380,
      "知道你": 8381,
      "知道自己": 8382,
      "的地下": 8383,
      "绘梨衣的": 8384,
      "，让人": 8385,
      "告诉我": 8386,
      "的神情": 8387,
      "地狱犬": 8388,
      "it": 8389,
      "上前": 8390,
      "也要": 8391,
      "也就是": 8392,
      "了点": 8393,
      "人工": 8394,
      "冲向": 8395,
      "动用": 8396,
      "啊，我": 8397,
      "在那个": 8398,
      "外的": 8399,
      "大副": 8400,
      "女王": 8401,
      "寄生": 8402,
      "床上": 8403,
      "引爆": 8404,
      "忍不住": 8405,
      "抱住": 8406,
      "救援": 8407,
      "文学": 8408,
      "是那么": 8409,
      "标准": 8410,
      "洗手": 8411,
      "深的": 8412,
      "混混": 8413,
      "猴脸": 8414,
      "电脑": 8415,
      "的都是": 8416,
      "的子弹": 8417,
      "的白色": 8418,
      "等到": 8419,
      "篮球": 8420,
      "而出": 8421,
      "而来，": 8422,
      "葬礼": 8423,
      "轻微": 8424,
      "那里，": 8425,
      "邮件": 8426,
      "里他": 8427,
      "门前": 8428,
      "阿尔": 8429,
      "，出": 8430,
      "，给": 8431,
      "▁“路明非": 8432,
      "▁“老大": 8433,
      "，一旦": 8434,
      "，却又": 8435,
      "它们的": 8436,
      "背后，": 8437,
      "的心跳": 8438,
      "看不见": 8439,
      "微笑着": 8440,
      "脑海里": 8441,
      "惊讶地": 8442,
      "en": 8443,
      "一辈子": 8444,
      "了两": 8445,
      "伊邪": 8446,
      "你能": 8447,
      "偏偏": 8448,
      "停车": 8449,
      "助理": 8450,
      "区的": 8451,
      "各自": 8452,
      "后背": 8453,
      "呈现": 8454,
      "品，": 8455,
      "啊！”路明非": 8456,
      "四处": 8457,
      "坐标": 8458,
      "师弟": 8459,
      "帮忙": 8460,
      "开。\r\n": 8461,
      "很大": 8462,
      "想想": 8463,
      "愧是": 8464,
      "我在": 8465,
      "方法": 8466,
      "是我们": 8467,
      "步枪": 8468,
      "没问题": 8469,
      "灯火": 8470,
      "狂暴": 8471,
      "皇女": 8472,
      "眼角": 8473,
      "等于": 8474,
      "走了，": 8475,
      "鼓掌": 8476,
      "，什么": 8477,
      "▁“不是": 8478,
      "。”路麟城": 8479,
      "，“那": 8480,
      "的，可": 8481,
      "了一口": 8482,
      "▁路明非心里": 8483,
      "这种事": 8484,
      "，不如": 8485,
      "有人在": 8486,
      "布宁的": 8487,
      "开始，": 8488,
      "，有的": 8489,
      "之前，": 8490,
      "立刻就": 8491,
      "王将的": 8492,
      "，要么": 8493,
      "优秀的": 8494,
      "伊邪那": 8495,
      "。她的": 8496,
      "了？”": 8497,
      "了么？”\r\n": 8498,
      "亲吻": 8499,
      "人鱼": 8500,
      "低下": 8501,
      "你去": 8502,
      "光的": 8503,
      "压低了": 8504,
      "变态": 8505,
      "天谴": 8506,
      "学习": 8507,
      "屋子": 8508,
      "开的": 8509,
      "意。\r\n": 8510,
      "插入": 8511,
      "未来": 8512,
      "桌子": 8513,
      "森林": 8514,
      "模式": 8515,
      "水的": 8516,
      "海面": 8517,
      "灾难": 8518,
      "玩命": 8519,
      "用尽": 8520,
      "申请": 8521,
      "相对": 8522,
      "着头": 8523,
      "约而": 8524,
      "维持": 8525,
      "舞池": 8526,
      "运动": 8527,
      "难以": 8528,
      "▁“您": 8529,
      "，但那": 8530,
      "▁路明非心说": 8531,
      "最后一个": 8532,
      "的事，": 8533,
      "沉默了很久": 8534,
      "电梯井": 8535,
      "》的": 8536,
      "一顿": 8537,
      "不死": 8538,
      "不容易": 8539,
      "中有": 8540,
      "临时": 8541,
      "举杯": 8542,
      "了起来。\r\n": 8543,
      "云层": 8544,
      "五十": 8545,
      "刀。\r\n": 8546,
      "劲儿": 8547,
      "君王": 8548,
      "和服": 8549,
      "四周": 8550,
      "在空中": 8551,
      "干扰": 8552,
      "度，": 8553,
      "座椅": 8554,
      "怒吼": 8555,
      "总之": 8556,
      "惊喜": 8557,
      "感谢": 8558,
      "我想": 8559,
      "打破": 8560,
      "推进": 8561,
      "携带": 8562,
      "摩擦": 8563,
      "撞撞": 8564,
      "文明": 8565,
      "游泳": 8566,
      "猎人": 8567,
      "的《": 8568,
      "的不是": 8569,
      "的生活": 8570,
      "目前": 8571,
      "睡觉": 8572,
      "穿上": 8573,
      "背叛": 8574,
      "贯穿": 8575,
      "赶快": 8576,
      "轰鸣": 8577,
      "速地": 8578,
      "避风": 8579,
      "闪避": 8580,
      "雕塑": 8581,
      "，‘": 8582,
      "，上": 8583,
      "，觉得": 8584,
      "，巨大的": 8585,
      "，要是": 8586,
      "？他": 8587,
      "了，我们": 8588,
      "那个男人": 8589,
      "女孩子": 8590,
      "，不能": 8591,
      "是个很": 8592,
      "今天的": 8593,
      "压低了声音": 8594,
      "aal": 8595,
      "▁而": 8596,
      "▁绘梨衣": 8597,
      "。你们": 8598,
      "了自己的": 8599,
      "估计": 8600,
      "何等": 8601,
      "做好": 8602,
      "做什么": 8603,
      "凌厉": 8604,
      "吼声": 8605,
      "在车": 8606,
      "在哪里": 8607,
      "基尼": 8608,
      "增加": 8609,
      "大地": 8610,
      "富山": 8611,
      "德勒": 8612,
      "性的": 8613,
      "恰恰": 8614,
      "拉斯": 8615,
      "斯坦": 8616,
      "曾是": 8617,
      "有机会": 8618,
      "来接": 8619,
      "梆子": 8620,
      "烟雾": 8621,
      "皮带": 8622,
      "看我": 8623,
      "空无一": 8624,
      "花纹": 8625,
      "血裔": 8626,
      "该死": 8627,
      "跳上": 8628,
      "远离": 8629,
      "金库": 8630,
      "面试": 8631,
      "骨头": 8632,
      "黑衣": 8633,
      "，老": 8634,
      "，想要": 8635,
      "这个人": 8636,
      "，那里": 8637,
      "还是个": 8638,
      "不会有": 8639,
      "▁“你是": 8640,
      "事实上": 8641,
      "24": 8642,
      "es": 8643,
      "▁阿巴斯": 8644,
      "一郎": 8645,
      "丽莎": 8646,
      "也不能": 8647,
      "了那么": 8648,
      "争取": 8649,
      "修改": 8650,
      "出发": 8651,
      "勇敢": 8652,
      "勉强": 8653,
      "化作": 8654,
      "医疗": 8655,
      "吧！": 8656,
      "嘶吼": 8657,
      "埋葬": 8658,
      "塞进": 8659,
      "她在": 8660,
      "好在": 8661,
      "它是": 8662,
      "定位": 8663,
      "导师": 8664,
      "尾巴": 8665,
      "带来": 8666,
      "建议": 8667,
      "弦一郎": 8668,
      "想把": 8669,
      "我都": 8670,
      "方便": 8671,
      "无聊": 8672,
      "明星": 8673,
      "架上": 8674,
      "残骸": 8675,
      "水面": 8676,
      "液体": 8677,
      "用于": 8678,
      "留着": 8679,
      "的路明非": 8680,
      "的肩膀": 8681,
      "的尸体": 8682,
      "看。\r\n": 8683,
      "眼镜": 8684,
      "称为": 8685,
      "绝望": 8686,
      "蜷缩": 8687,
      "装饰": 8688,
      "说的，": 8689,
      "象征": 8690,
      "超越": 8691,
      "酒杯": 8692,
      "重型": 8693,
      "雅史": 8694,
      "震耳": 8695,
      "高高": 8696,
      "，作为": 8697,
      "▁“现在": 8698,
      "▁“其实": 8699,
      "，“这": 8700,
      "，“你们": 8701,
      "……这": 8702,
      "这个名字": 8703,
      "已经很": 8704,
      "只有一个": 8705,
      "：“你": 8706,
      "龙族血统": 8707,
      "一下子": 8708,
      "负责人": 8709,
      "猛鬼众的": 8710,
      "驾驶座": 8711,
      "龙马弦一郎": 8712,
      "野田寿": 8713,
      "aal号": 8714,
      "13": 8715,
      "”、": 8716,
      "”的一": 8717,
      "▁曼施坦因": 8718,
      "了就": 8719,
      "了么？”": 8720,
      "仍在": 8721,
      "伙伴": 8722,
      "低温": 8723,
      "何况": 8724,
      "出一个": 8725,
      "到他": 8726,
      "刺耳": 8727,
      "名的": 8728,
      "固定": 8729,
      "地笑": 8730,
      "复仇": 8731,
      "夜，": 8732,
      "实力": 8733,
      "屋里": 8734,
      "悍马": 8735,
      "悲剧": 8736,
      "挑战": 8737,
      "握住": 8738,
      "操纵": 8739,
      "昏迷": 8740,
      "机舱": 8741,
      "栏杆": 8742,
      "榴弹": 8743,
      "洋洋": 8744,
      "海域": 8745,
      "的体": 8746,
      "的最": 8747,
      "红酒": 8748,
      "绿色的": 8749,
      "罕见": 8750,
      "莫德勒": 8751,
      "行李": 8752,
      "街上": 8753,
      "衬衫": 8754,
      "解开": 8755,
      "说“": 8756,
      "通缉": 8757,
      "那头": 8758,
      "闪烁": 8759,
      "，海": 8760,
      "，感觉": 8761,
      "，居然": 8762,
      "，大概": 8763,
      "，简直": 8764,
      "了一会儿": 8765,
      "忽然就": 8766,
      "，也不": 8767,
      "喜欢的": 8768,
      "孩子们": 8769,
      "燃烧的": 8770,
      "战斗机": 8771,
      "足够的": 8772,
      "asara": 8773,
      "更多的": 8774,
      "伸出手": 8775,
      "笔记本": 8776,
      "富山雅史": 8777,
      "Basara": 8778,
      "。其实": 8779,
      "一具": 8780,
      "一台": 8781,
      "一阵": 8782,
      "与火": 8783,
      "中断": 8784,
      "令他": 8785,
      "信心": 8786,
      "偷偷": 8787,
      "可不是": 8788,
      "听到了": 8789,
      "喘息": 8790,
      "地位": 8791,
      "夏洛": 8792,
      "她就": 8793,
      "实习": 8794,
      "家，": 8795,
      "师妹": 8796,
      "形象": 8797,
      "得不": 8798,
      "得到了": 8799,
      "房车": 8800,
      "所思": 8801,
      "扶着": 8802,
      "新鲜": 8803,
      "方面": 8804,
      "有用": 8805,
      "条件": 8806,
      "梦中": 8807,
      "椅子": 8808,
      "水泥": 8809,
      "点点": 8810,
      "狄克": 8811,
      "玩意": 8812,
      "理论": 8813,
      "的城市": 8814,
      "的目光": 8815,
      "真相": 8816,
      "瞭望": 8817,
      "破冰": 8818,
      "硫磺": 8819,
      "纤细": 8820,
      "老实": 8821,
      "能在": 8822,
      "蛇群": 8823,
      "蝴蝶": 8824,
      "设置": 8825,
      "跌跌": 8826,
      "铁轨": 8827,
      "高温": 8828,
      "，发出": 8829,
      "，如今": 8830,
      "？这": 8831,
      "▁“明白": 8832,
      "了，因为": 8833,
      "的时候他": 8834,
      "日本黑道": 8835,
      "，是因为": 8836,
      "明白了": 8837,
      "。”恺撒说。\r\n": 8838,
      "也没法": 8839,
      "高速地": 8840,
      "意识到自己": 8841,
      "叹了口气。\r\n": 8842,
      "准确地": 8843,
      "极乐馆": 8844,
      "约而同": 8845,
      "21": 8846,
      "▁苏茜": 8847,
      "了下来": 8848,
      "佐伯": 8849,
      "公布": 8850,
      "冲进": 8851,
      "单独": 8852,
      "古龙": 8853,
      "可见": 8854,
      "嘲讽": 8855,
      "大楼": 8856,
      "大理石": 8857,
      "展开": 8858,
      "年，": 8859,
      "心的": 8860,
      "我去": 8861,
      "扑向": 8862,
      "找个": 8863,
      "把他们": 8864,
      "早餐": 8865,
      "毁掉": 8866,
      "气的": 8867,
      "没关系": 8868,
      "真有": 8869,
      "眼下": 8870,
      "绿色": 8871,
      "脆弱": 8872,
      "舰长": 8873,
      "说的话": 8874,
      "过山": 8875,
      "近乎": 8876,
      "还活着": 8877,
      "都无法": 8878,
      "铸造": 8879,
      "骑着": 8880,
      "骷髅": 8881,
      "，打": 8882,
      "，满": 8883,
      "。”风间琉璃": 8884,
      "就是要": 8885,
      "，这么": 8886,
      "，那时候": 8887,
      "世界各": 8888,
      "，不会": 8889,
      "，以免": 8890,
      "点头。\r\n": 8891,
      "回答。\r\n": 8892,
      "时代的": 8893,
      "跌跌撞撞": 8894,
      "CB": 8895,
      "PS": 8896,
      "os": 8897,
      "▁M": 8898,
      "▁R": 8899,
      "一路上": 8900,
      "上说": 8901,
      "与其": 8902,
      "俯瞰": 8903,
      "入学": 8904,
      "匕首": 8905,
      "双腿": 8906,
      "发的": 8907,
      "号码": 8908,
      "大量的": 8909,
      "家长": 8910,
      "对面的": 8911,
      "弗里": 8912,
      "很远": 8913,
      "我能": 8914,
      "抓紧": 8915,
      "折刀": 8916,
      "拿着": 8917,
      "推多": 8918,
      "整条": 8919,
      "来的，": 8920,
      "校服": 8921,
      "流，": 8922,
      "的钢": 8923,
      "的问题": 8924,
      "的模样": 8925,
      "直径": 8926,
      "空中，": 8927,
      "端着": 8928,
      "答案": 8929,
      "粉碎": 8930,
      "背景": 8931,
      "花，": 8932,
      "茫茫": 8933,
      "蛙人": 8934,
      "行的": 8935,
      "货物": 8936,
      "那份": 8937,
      "长长的": 8938,
      "鬼魂": 8939,
      "，比": 8940,
      "，原本": 8941,
      "，反正": 8942,
      "什么样的": 8943,
      "恺撒和": 8944,
      "已经在": 8945,
      "，这次": 8946,
      "这种东西": 8947,
      "东京塔": 8948,
      "东京的": 8949,
      "学生们": 8950,
      "就会被": 8951,
      "所有人的": 8952,
      "，却没有": 8953,
      "▁这时候": 8954,
      "离开了": 8955,
      "过去的": 8956,
      "电梯门": 8957,
      "默默地看着": 8958,
      "方向盘": 8959,
      "恢复了": 8960,
      "短弧刀": 8961,
      "狄克推多": 8962,
      "一日": 8963,
      "一下，": 8964,
      "不一样": 8965,
      "主任": 8966,
      "乘客": 8967,
      "了！\r\n": 8968,
      "五分钟": 8969,
      "介乎": 8970,
      "侵入": 8971,
      "克格": 8972,
      "刀术": 8973,
      "厘米": 8974,
      "只好": 8975,
      "吃掉": 8976,
      "和“": 8977,
      "在自己的": 8978,
      "大脑": 8979,
      "大量": 8980,
      "妇女": 8981,
      "子爵": 8982,
      "安东": 8983,
      "密的": 8984,
      "对不起": 8985,
      "层层": 8986,
      "巨龙": 8987,
      "带走": 8988,
      "弥座": 8989,
      "快点": 8990,
      "慢悠悠": 8991,
      "打断": 8992,
      "拉面": 8993,
      "拿起": 8994,
      "旅馆": 8995,
      "是‘": 8996,
      "是她": 8997,
      "有效": 8998,
      "本身": 8999,
      "柔软": 9000,
      "气垫": 9001,
      "流动": 9002,
      "烟，": 9003,
      "牛仔": 9004,
      "猎杀": 9005,
      "的金色": 9006,
      "的方式": 9007,
      "相遇": 9008,
      "知识": 9009,
      "礼服": 9010,
      "线条": 9011,
      "衬衣": 9012,
      "规矩": 9013,
      "让我们": 9014,
      "跟他们": 9015,
      "长时间": 9016,
      "须弥座": 9017,
      "高级": 9018,
      "，三": 9019,
      "，零": 9020,
      "，其中": 9021,
      "？”苏恩曦": 9022,
      "已经把": 9023,
      "就是这样": 9024,
      "的时候，他": 9025,
      "，就会": 9026,
      "，也就是": 9027,
      "沉默了片刻": 9028,
      "也没什么": 9029,
      "。”楚子航说，“": 9030,
      "不敢相信": 9031,
      "绝对的": 9032,
      "冷冷地说，“": 9033,
      "的身影": 9034,
      "拍卖会": 9035,
      "避风港": 9036,
      "夏洛子爵": 9037,
      "克格勃": 9038,
      "ic": 9039,
      "▁o": 9040,
      "▁兰斯洛特": 9041,
      "一般的": 9042,
      "之内": 9043,
      "他会": 9044,
      "你还": 9045,
      "侧写": 9046,
      "公里的": 9047,
      "冒险": 9048,
      "冰窖": 9049,
      "凶猛": 9050,
      "刀锋": 9051,
      "动手": 9052,
      "右手": 9053,
      "听不懂": 9054,
      "场上": 9055,
      "夕阳": 9056,
      "她是": 9057,
      "妻子": 9058,
      "尾花": 9059,
      "愚蠢": 9060,
      "救生": 9061,
      "无疑": 9062,
      "是这样": 9063,
      "景象": 9064,
      "智商": 9065,
      "楼顶": 9066,
      "正面": 9067,
      "的情况": 9068,
      "的方向": 9069,
      "的味道": 9070,
      "符合": 9071,
      "者之": 9072,
      "聪明": 9073,
      "脑子": 9074,
      "脸。\r\n": 9075,
      "船，": 9076,
      "英语": 9077,
      "裙子": 9078,
      "话题": 9079,
      "走。\r\n": 9080,
      "跑得": 9081,
      "部队": 9082,
      "隐隐": 9083,
      "隐藏在": 9084,
      "！你们": 9085,
      "什么的，": 9086,
      "！”楚子航": 9087,
      "，我也": 9088,
      "学院里": 9089,
      "，”恺撒": 9090,
      "了。”恺撒": 9091,
      "传来了": 9092,
      "青铜与火": 9093,
      "普通人": 9094,
      "尸守群": 9095,
      "冲击波": 9096,
      "剧烈地": 9097,
      "缓慢地": 9098,
      "‘S’级": 9099,
      "CBD": 9100,
      "”。": 9101,
      "▁是": 9102,
      "▁女孩": 9103,
      "▁所以": 9104,
      "》，": 9105,
      "下一": 9106,
      "两位": 9107,
      "主义": 9108,
      "从没": 9109,
      "传出": 9110,
      "住了。": 9111,
      "克制": 9112,
      "免费": 9113,
      "再见": 9114,
      "冒着": 9115,
      "减速": 9116,
      "几千": 9117,
      "几年": 9118,
      "包里": 9119,
      "半截": 9120,
      "去向": 9121,
      "吧。”": 9122,
      "哼哼": 9123,
      "国的": 9124,
      "学会": 9125,
      "就没": 9126,
      "就这样": 9127,
      "很清楚": 9128,
      "怀里": 9129,
      "房子": 9130,
      "摸索": 9131,
      "是他的": 9132,
      "本家": 9133,
      "杀手": 9134,
      "格斗": 9135,
      "桌上，": 9136,
      "桌上的": 9137,
      "橡皮": 9138,
      "气象": 9139,
      "沸腾": 9140,
      "牢牢": 9141,
      "的山": 9142,
      "的怪物": 9143,
      "的故事": 9144,
      "着自己的": 9145,
      "社团": 9146,
      "私人": 9147,
      "积水": 9148,
      "笑，": 9149,
      "细胞": 9150,
      "联络": 9151,
      "脊椎": 9152,
      "航行": 9153,
      "虚弱": 9154,
      "说起": 9155,
      "说我们": 9156,
      "赤裸": 9157,
      "跋涉": 9158,
      "车顶": 9159,
      "追逐": 9160,
      "逃生": 9161,
      "遗迹": 9162,
      "闭嘴": 9163,
      "飞舞": 9164,
      "高压": 9165,
      "龙文": 9166,
      "，天": 9167,
      "，人类": 9168,
      "一个小": 9169,
      "……可": 9170,
      "恺撒·加图索": 9171,
      "，那是一": 9172,
      "忽然想起": 9173,
      "那样，": 9174,
      "武器，": 9175,
      "说话。\r\n": 9176,
      "看见了": 9177,
      "在这间": 9178,
      "对方的": 9179,
      "反应堆": 9180,
      "笑笑，“": 9181,
      "狂风暴雨": 9182,
      "霰弹枪": 9183,
      "玩意儿": 9184,
      "青铜与火之王": 9185,
      "1]": 9186,
      "[1]": 9187,
      "▁D": 9188,
      "▁她的": 9189,
      "一股": 9190,
      "一闪": 9191,
      "不管": 9192,
      "丝袜": 9193,
      "他和": 9194,
      "们在": 9195,
      "传统": 9196,
      "你和": 9197,
      "公斤": 9198,
      "兰博": 9199,
      "其妙": 9200,
      "分享": 9201,
      "到处": 9202,
      "受过": 9203,
      "同意": 9204,
      "启动": 9205,
      "告别": 9206,
      "哗哗": 9207,
      "回想": 9208,
      "女人的": 9209,
      "岩石": 9210,
      "巴黎": 9211,
      "幅画": 9212,
      "床上，": 9213,
      "惨白": 9214,
      "想去": 9215,
      "我，": 9216,
      "戒指": 9217,
      "所长": 9218,
      "把那": 9219,
      "抹掉": 9220,
      "据说": 9221,
      "数百": 9222,
      "无关": 9223,
      "楼，": 9224,
      "没来": 9225,
      "的歌": 9226,
      "的雨": 9227,
      "的同时": 9228,
      "的任务": 9229,
      "短暂": 9230,
      "空白": 9231,
      "紧急": 9232,
      "裙摆": 9233,
      "责任": 9234,
      "趁着": 9235,
      "这两个": 9236,
      "透明的": 9237,
      "道，": 9238,
      "都不知道": 9239,
      "雾气": 9240,
      "顶着": 9241,
      "骨，": 9242,
      "鸢尾花": 9243,
      "黄泉": 9244,
      "，水": 9245,
      "，如同": 9246,
      "▁“就是": 9247,
      "▁“那是": 9248,
      "了，所以": 9249,
      "？”源稚生": 9250,
      "？”昂热": 9251,
      "他们是": 9252,
      "，但还是": 9253,
      "。但他": 9254,
      "一点点": 9255,
      "。”恺撒说，“": 9256,
      "也没用": 9257,
      "的血液": 9258,
      "叔叔婶婶": 9259,
      "各种各": 9260,
      "随时都会": 9261,
      "十五岁": 9262,
      "点点头，“": 9263,
      "弥漫着": 9264,
      "深深地": 9265,
      "莫名其妙": 9266,
      "绝大多数": 9267,
      "打了个寒战": 9268,
      "洗手间": 9269,
      "兰博基尼": 9270,
      "--": 9271,
      "16": 9272,
      "ay": 9273,
      "ea": 9274,
      "▁小": 9275,
      "一件事": 9276,
      "上万": 9277,
      "下车": 9278,
      "下雨": 9279,
      "不清楚": 9280,
      "世的": 9281,
      "之井": 9282,
      "也知道": 9283,
      "代的": 9284,
      "保存": 9285,
      "保险": 9286,
      "切断": 9287,
      "却又": 9288,
      "发呆": 9289,
      "变了，": 9290,
      "只不过": 9291,
      "听过": 9292,
      "喃喃": 9293,
      "四下": 9294,
      "在意": 9295,
      "坍塌": 9296,
      "坚定": 9297,
      "大夫": 9298,
      "奇迹": 9299,
      "巴巴": 9300,
      "带来的": 9301,
      "开玩笑": 9302,
      "弹雨": 9303,
      "得就像": 9304,
      "我来": 9305,
      "我说": 9306,
      "打火": 9307,
      "摇了": 9308,
      "摸摸": 9309,
      "敏锐": 9310,
      "数不清": 9311,
      "斯莱": 9312,
      "是很": 9313,
      "暗恋": 9314,
      "杀掉": 9315,
      "欲望": 9316,
      "欲聋": 9317,
      "流着": 9318,
      "浪费": 9319,
      "海啸": 9320,
      "演出": 9321,
      "灯，": 9322,
      "烈酒": 9323,
      "的正": 9324,
      "的目标": 9325,
      "的笑容": 9326,
      "的背影": 9327,
      "目的地": 9328,
      "石英": 9329,
      "破碎": 9330,
      "老婆": 9331,
      "耗尽": 9332,
      "虽说": 9333,
      "还不是": 9334,
      "这时候": 9335,
      "退后": 9336,
      "里面的": 9337,
      "重伤": 9338,
      "门外": 9339,
      "颇为": 9340,
      "▁“很": 9341,
      "路明非。\r\n": 9342,
      "已经开始": 9343,
      "忽然觉得": 9344,
      "，一手": 9345,
      "还有什么": 9346,
      "也不想": 9347,
      "年轻的": 9348,
      "微笑。\r\n": 9349,
      "消失了，": 9350,
      "很快就": 9351,
      "致命的": 9352,
      "悄悄地": 9353,
      "震耳欲聋": 9354,
      "14": 9355,
      "”级": 9356,
      "▁邵公子": 9357,
      "。诺诺": 9358,
      "三峡": 9359,
      "上帝": 9360,
      "下一刻": 9361,
      "不成": 9362,
      "丝毫": 9363,
      "人能": 9364,
      "伦比": 9365,
      "似的。\r\n": 9366,
      "你，你": 9367,
      "别说": 9368,
      "动脉": 9369,
      "却没有": 9370,
      "反抗": 9371,
      "叫他": 9372,
      "合理": 9373,
      "固执": 9374,
      "地。\r\n": 9375,
      "大衣": 9376,
      "失望": 9377,
      "室，": 9378,
      "射出": 9379,
      "就没有": 9380,
      "左手": 9381,
      "年龄": 9382,
      "得意": 9383,
      "心地": 9384,
      "忍受": 9385,
      "想像": 9386,
      "手电": 9387,
      "承受": 9388,
      "把自己的": 9389,
      "折断": 9390,
      "报纸": 9391,
      "放着": 9392,
      "无限": 9393,
      "暂停": 9394,
      "最初": 9395,
      "最强": 9396,
      "本书": 9397,
      "束缚": 9398,
      "桌边": 9399,
      "注定": 9400,
      "燃油": 9401,
      "百年": 9402,
      "的情况下": 9403,
      "皮鞋": 9404,
      "看似": 9405,
      "精锐": 9406,
      "背上": 9407,
      "节奏": 9408,
      "裙，": 9409,
      "角度": 9410,
      "诅咒": 9411,
      "话。\r\n": 9412,
      "这一次": 9413,
      "追踪": 9414,
      "避免": 9415,
      "酒吧": 9416,
      "里的人": 9417,
      "长得": 9418,
      "阿姨": 9419,
      "随口": 9420,
      "鼻子": 9421,
      "，心里": 9422,
      "，今天": 9423,
      "这种人": 9424,
      "，可我": 9425,
      "。”路明非说，“": 9426,
      "打开，": 9427,
      "在一起，": 9428,
      "扭头看着": 9429,
      "不由自主地": 9430,
      "▁The": 9431,
      "跌跌撞撞地": 9432,
      "..": 9433,
      "17": 9434,
      "▁C": 9435,
      "▁L": 9436,
      "▁一个": 9437,
      "。那些": 9438,
      "一架": 9439,
      "一口气": 9440,
      "七宗": 9441,
      "下降": 9442,
      "不愿": 9443,
      "丝绸": 9444,
      "为首": 9445,
      "也无法": 9446,
      "了出去": 9447,
      "亚于": 9448,
      "亮的": 9449,
      "优先": 9450,
      "住在": 9451,
      "作响": 9452,
      "倒在": 9453,
      "光芒": 9454,
      "内的": 9455,
      "北欧": 9456,
      "十万": 9457,
      "发起": 9458,
      "吃着": 9459,
      "喷出": 9460,
      "回应": 9461,
      "夫人": 9462,
      "头，“": 9463,
      "奢华": 9464,
      "娃娃": 9465,
      "完毕": 9466,
      "射，": 9467,
      "小镇": 9468,
      "就跟": 9469,
      "巧克": 9470,
      "庄园": 9471,
      "形态": 9472,
      "快，": 9473,
      "悄无声": 9474,
      "战栗": 9475,
      "执法": 9476,
      "扫描": 9477,
      "扫过": 9478,
      "拉丁": 9479,
      "挑眉": 9480,
      "探险": 9481,
      "摸了": 9482,
      "晚餐": 9483,
      "暗红色的": 9484,
      "枪声": 9485,
      "样子": 9486,
      "海沟": 9487,
      "灰色的": 9488,
      "爬行": 9489,
      "的深": 9490,
      "的边缘": 9491,
      "等我": 9492,
      "策划": 9493,
      "管家": 9494,
      "结论": 9495,
      "老娘": 9496,
      "而不是": 9497,
      "船的": 9498,
      "衣领": 9499,
      "裹着": 9500,
      "规模": 9501,
      "警卫": 9502,
      "警戒": 9503,
      "跑到": 9504,
      "那对": 9505,
      "酒瓶": 9506,
      "重重": 9507,
      "闪着": 9508,
      "陌生": 9509,
      "顺利": 9510,
      "频道": 9511,
      "颜色": 9512,
      "鲸鱼": 9513,
      "路明非和": 9514,
      "什么？": 9515,
      "……但": 9516,
      "，那就是": 9517,
      "▁“是啊": 9518,
      "还没来得及": 9519,
      "金色鸢尾花": 9520,
      "神话中": 9521,
      "获得了": 9522,
      "对视一眼": 9523,
      "尤其是": 9524,
      "猴脸男人": 9525,
      "”、“": 9526,
      "七宗罪": 9527,
      "1/": 9528,
      "ia": 9529,
      "▁男人": 9530,
      "。最后": 9531,
      "一遍": 9532,
      "上是": 9533,
      "与伦比": 9534,
      "中了": 9535,
      "乘坐": 9536,
      "从他": 9537,
      "伊丽莎": 9538,
      "佳佳": 9539,
      "依旧": 9540,
      "侵蚀": 9541,
      "信用": 9542,
      "关注": 9543,
      "冷漠": 9544,
      "出生": 9545,
      "到了，": 9546,
      "化的": 9547,
      "区，": 9548,
      "台词": 9549,
      "处决": 9550,
      "少主": 9551,
      "尼德": 9552,
      "开门": 9553,
      "弯曲": 9554,
      "恨不得": 9555,
      "扮演": 9556,
      "拇指": 9557,
      "拿到": 9558,
      "摆脱": 9559,
      "摇摇": 9560,
      "日语": 9561,
      "是你的": 9562,
      "来，“": 9563,
      "梦里": 9564,
      "死，": 9565,
      "死了。\r\n": 9566,
      "火场": 9567,
      "火花": 9568,
      "热的": 9569,
      "牌，": 9570,
      "牧师": 9571,
      "的？": 9572,
      "的生命": 9573,
      "瞪大了": 9574,
      "碎裂": 9575,
      "磁场": 9576,
      "立场": 9577,
      "童子": 9578,
      "箱，": 9579,
      "红的": 9580,
      "缘故": 9581,
      "胸膛": 9582,
      "表达": 9583,
      "被称作": 9584,
      "贤者之": 9585,
      "贪婪": 9586,
      "迄今": 9587,
      "这群": 9588,
      "迟疑": 9589,
      "那台": 9590,
      "镜子": 9591,
      "雨幕": 9592,
      "▁“见鬼": 9593,
      "，但它": 9594,
      "的，因为": 9595,
      "，这就是": 9596,
      "女孩，": 9597,
      "，在他": 9598,
      "很多人": 9599,
      "龙王诺顿": 9600,
      "言灵·": 9601,
      "，对着": 9602,
      "高速公路": 9603,
      "微笑，“": 9604,
      "青铜城": 9605,
      "的身躯": 9606,
      "1000": 9607,
      "觉察到": 9608,
      "笔直地": 9609,
      "守望者": 9610,
      "贤者之石": 9611,
      "is": 9612,
      "▁f": 9613,
      "丈夫": 9614,
      "三轮": 9615,
      "上有": 9616,
      "下坠": 9617,
      "世间": 9618,
      "也太": 9619,
      "仅仅": 9620,
      "伤痕": 9621,
      "俄国": 9622,
      "区区": 9623,
      "去往": 9624,
      "发了": 9625,
      "可惜": 9626,
      "台上，": 9627,
      "咳嗽": 9628,
      "哭泣": 9629,
      "地板": 9630,
      "大哭": 9631,
      "夸张": 9632,
      "奔向": 9633,
      "好看": 9634,
      "学家": 9635,
      "小孩": 9636,
      "少校": 9637,
      "岩流": 9638,
      "干脆": 9639,
      "平时": 9640,
      "弹幕": 9641,
      "恶心": 9642,
      "惊呼": 9643,
      "手里的": 9644,
      "扔在": 9645,
      "扯淡": 9646,
      "把这个": 9647,
      "整整": 9648,
      "整理": 9649,
      "是想": 9650,
      "机师": 9651,
      "活儿": 9652,
      "淋漓": 9653,
      "爱你": 9654,
      "电子": 9655,
      "的名": 9656,
      "的血统": 9657,
      "破坏": 9658,
      "羡慕": 9659,
      "考察": 9660,
      "能找到": 9661,
      "脸上的": 9662,
      "花钱": 9663,
      "说自己": 9664,
      "身影": 9665,
      "车门": 9666,
      "轿车": 9667,
      "过得": 9668,
      "过来的": 9669,
      "都已经": 9670,
      "都可以": 9671,
      "醒来，": 9672,
      "靠得住": 9673,
      "风的": 9674,
      "，卡塞尔学院": 9675,
      "，穿着": 9676,
      "，原来": 9677,
      "，因此": 9678,
      "自己，": 9679,
      "起来了，": 9680,
      "的地步": 9681,
      "真是太": 9682,
      "进入了": 9683,
      "到底是什么": 9684,
      "生活在": 9685,
      "告诉你": 9686,
      "的风格": 9687,
      "皱眉。\r\n": 9688,
      "约而同地": 9689,
      "伊丽莎白": 9690,
      "▁那个": 9691,
      "▁因为": 9692,
      "一团": 9693,
      "一幕": 9694,
      "一句话": 9695,
      "为她": 9696,
      "从哪里": 9697,
      "他还": 9698,
      "冰山": 9699,
      "印度": 9700,
      "去了，": 9701,
      "又一次": 9702,
      "同一个": 9703,
      "坐下": 9704,
      "埃及": 9705,
      "声呐": 9706,
      "好歹": 9707,
      "好朋友": 9708,
      "安装": 9709,
      "尊严": 9710,
      "尔金": 9711,
      "层，": 9712,
      "展示": 9713,
      "想明白": 9714,
      "我还": 9715,
      "手，“": 9716,
      "拎着": 9717,
      "描述": 9718,
      "机。\r\n": 9719,
      "材料": 9720,
      "森严": 9721,
      "深吸": 9722,
      "清醒": 9723,
      "渴望": 9724,
      "火，": 9725,
      "热闹": 9726,
      "特意": 9727,
      "王牌": 9728,
      "疲倦": 9729,
      "的混血种": 9730,
      "知事": 9731,
      "给他们": 9732,
      "肥婆": 9733,
      "腕表": 9734,
      "船员": 9735,
      "花园": 9736,
      "诱惑": 9737,
      "象龟": 9738,
      "路线": 9739,
      "运气": 9740,
      "那柄": 9741,
      "那股": 9742,
      "霍尔金": 9743,
      "黄色的": 9744,
      "，完全": 9745,
      "▁“校长": 9746,
      "。”男人": 9747,
      "我们是": 9748,
      "是一张": 9749,
      "可能性": 9750,
      "有点不": 9751,
      "都会被": 9752,
      "先生们": 9753,
      "几乎是": 9754,
      "空间里": 9755,
      "装备部的": 9756,
      "北极熊": 9757,
      "▁“喂喂": 9758,
      "流淌着": 9759,
      "疯狂地": 9760,
      "▁the": 9761,
      "委员会": 9762,
      "文学社": 9763,
      "过山车": 9764,
      "岩流研究所": 9765,
      "霍尔金娜": 9766,
      "ID": 9767,
      "ve": 9768,
      "▁两个人": 9769,
      "三十": 9770,
      "上空": 9771,
      "上膛": 9772,
      "上了，": 9773,
      "不止": 9774,
      "不出来": 9775,
      "两只": 9776,
      "严格": 9777,
      "事务": 9778,
      "亡命": 9779,
      "人是": 9780,
      "代理": 9781,
      "你这": 9782,
      "保留": 9783,
      "利用": 9784,
      "千夏": 9785,
      "合，": 9786,
      "咬着": 9787,
      "嘶叫": 9788,
      "器，": 9789,
      "图灵": 9790,
      "士忌": 9791,
      "大片": 9792,
      "天赋": 9793,
      "妞儿": 9794,
      "官邸": 9795,
      "家人": 9796,
      "小型": 9797,
      "小声": 9798,
      "就知道": 9799,
      "山隆": 9800,
      "师傅": 9801,
      "得像": 9802,
      "德华": 9803,
      "意，": 9804,
      "扫视": 9805,
      "掌声": 9806,
      "是用": 9807,
      "杀胚": 9808,
      "极渊": 9809,
      "枪手": 9810,
      "架势": 9811,
      "海潮": 9812,
      "温和": 9813,
      "特种": 9814,
      "环顾": 9815,
      "的双": 9816,
      "的一个": 9817,
      "的只有": 9818,
      "的秘密": 9819,
      "的生物": 9820,
      "看去，": 9821,
      "短短": 9822,
      "给我们": 9823,
      "美好": 9824,
      "耐烦": 9825,
      "财富": 9826,
      "贴在": 9827,
      "贵公子": 9828,
      "赞美": 9829,
      "酒窖": 9830,
      "错了": 9831,
      "闪闪": 9832,
      "防空洞": 9833,
      "顺着": 9834,
      "鼓励": 9835,
      "，神": 9836,
      "，蛇岐八家": 9837,
      "▁“这么": 9838,
      "▁“师姐": 9839,
      "。”校长": 9840,
      "这个时候": 9841,
      "的，”": 9842,
      "的，所以": 9843,
      "已经没有": 9844,
      "起来的": 9845,
      "那个小": 9846,
      "觉得我": 9847,
      "。他是": 9848,
      "有点像": 9849,
      "一直都是": 9850,
      "面前。\r\n": 9851,
      "的手腕": 9852,
      "？”路明非问。\r\n": 9853,
      "电话。\r\n": 9854,
      "▁“不要": 9855,
      "混血种的": 9856,
      "的黑影": 9857,
      "在这里，": 9858,
      "一定是": 9859,
      "周围的": 9860,
      "的巨大": 9861,
      "脑海中": 9862,
      "千万美元": 9863,
      "抬起头来，": 9864,
      "小心翼翼地": 9865,
      "童子切": 9866,
      "山隆造": 9867,
      "t;": 9868,
      "th": 9869,
      "。以": 9870,
      "。此刻": 9871,
      "上网": 9872,
      "不去": 9873,
      "不远": 9874,
      "之地": 9875,
      "了她": 9876,
      "他对": 9877,
      "佐伯龙": 9878,
      "你要": 9879,
      "做过": 9880,
      "具备": 9881,
      "再也没有": 9882,
      "冲突": 9883,
      "分之一": 9884,
      "动。": 9885,
      "匪夷": 9886,
      "去过": 9887,
      "发挥": 9888,
      "取代": 9889,
      "堪称": 9890,
      "墙，": 9891,
      "复苏": 9892,
      "天才": 9893,
      "姿态": 9894,
      "察觉": 9895,
      "对准": 9896,
      "对他们": 9897,
      "层楼": 9898,
      "弗拉": 9899,
      "感慨": 9900,
      "我，我": 9901,
      "手套": 9902,
      "手段": 9903,
      "打招呼": 9904,
      "把路明非": 9905,
      "护照": 9906,
      "抱怨": 9907,
      "挖掘": 9908,
      "掏出": 9909,
      "支枪": 9910,
      "无力": 9911,
      "无路": 9912,
      "曾在": 9913,
      "望远": 9914,
      "未知": 9915,
      "某位": 9916,
      "栈桥": 9917,
      "梅尔": 9918,
      "次，": 9919,
      "死。\r\n": 9920,
      "沉入": 9921,
      "沉吟": 9922,
      "洞穴": 9923,
      "消耗": 9924,
      "混乱": 9925,
      "潮水": 9926,
      "炸药": 9927,
      "爱德华": 9928,
      "留给": 9929,
      "眼中": 9930,
      "老布宁": 9931,
      "联邦": 9932,
      "脱下": 9933,
      "融化": 9934,
      "装置": 9935,
      "见识": 9936,
      "警惕": 9937,
      "说服": 9938,
      "账户": 9939,
      "货品": 9940,
      "越发": 9941,
      "跟人": 9942,
      "追击": 9943,
      "避开": 9944,
      "里，他": 9945,
      "钱，": 9946,
      "降低": 9947,
      "除非": 9948,
      "陷阱": 9949,
      "隆隆": 9950,
      "震动，": 9951,
      "飞扬": 9952,
      "黑帮": 9953,
      "！快": 9954,
      "，白": 9955,
      "，最终": 9956,
      "，即便": 9957,
      "▁“不知道": 9958,
      "。”樱": 9959,
      "，我可以": 9960,
      "芬格尔的": 9961,
      "▁“我知道": 9962,
      "是一间": 9963,
      "，也没有": 9964,
      "么？”芬格尔": 9965,
      "根本没": 9966,
      "000": 9967,
      "的手指": 9968,
      "作为一个": 9969,
      "路明非的肩膀": 9970,
      "施耐德教授": 9971,
      "，让他": 9972,
      "跟你说": 9973,
      "战场上": 9974,
      "不在乎": 9975,
      "沙发上": 9976,
      "and": 9977,
      "远远地": 9978,
      "过程中": 9979,
      "未婚妻": 9980,
      "灯火通": 9981,
      "没来由": 9982,
      "摸了摸": 9983,
      "图灵先生": 9984,
      "佐伯龙治": 9985,
      "匪夷所思": 9986,
      "▁樱": 9987,
      "。一个": 9988,
      "一艘": 9989,
      "一秒钟": 9990,
      "上浮": 9991,
      "上百": 9992,
      "不远处": 9993,
      "全无": 9994,
      "军事": 9995,
      "出了一": 9996,
      "别人的": 9997,
      "刺激": 9998,
      "势力": 9999,
      "包厢": 10000,
      "只需要": 10001,
      "台阶": 10002,
      "吃惊": 10003,
      "同类": 10004,
      "听懂": 10005,
      "地面，": 10006,
      "墨镜": 10007,
      "外界": 10008,
      "好。\r\n": 10009,
      "威士忌": 10010,
      "孤零": 10011,
      "宣布": 10012,
      "对吧？": 10013,
      "导航": 10014,
      "岛屿": 10015,
      "往事": 10016,
      "很小": 10017,
      "感。\r\n": 10018,
      "手持": 10019,
      "手提": 10020,
      "打造": 10021,
      "拍着": 10022,
      "挥刀": 10023,
      "摇摆": 10024,
      "收藏": 10025,
      "断裂": 10026,
      "昨晚": 10027,
      "普京": 10028,
      "最大": 10029,
      "服从": 10030,
      "村雨": 10031,
      "松开": 10032,
      "核弹": 10033,
      "气氛": 10034,
      "水流": 10035,
      "泛着": 10036,
      "犯了": 10037,
      "现象": 10038,
      "的香": 10039,
      "的第一": 10040,
      "的建筑": 10041,
      "红外": 10042,
      "组长": 10043,
      "绅士": 10044,
      "花费": 10045,
      "蕾丝": 10046,
      "行驶": 10047,
      "街道": 10048,
      "记载": 10049,
      "起飞": 10050,
      "路。\r\n": 10051,
      "过头": 10052,
      "遥远": 10053,
      "重逢": 10054,
      "钻进": 10055,
      "长着": 10056,
      "青春": 10057,
      "青色": 10058,
      "面孔": 10059,
      "飞溅": 10060,
      "飞艇": 10061,
      "，\r\n": 10062,
      "，绘梨衣": 10063,
      "，外面": 10064,
      "，应该是": 10065,
      "▁“谁": 10066,
      "。”副校长": 10067,
      "，他就": 10068,
      "知道他": 10069,
      "，你可以": 10070,
      "如果你": 10071,
      "▁他在": 10072,
      "，每次": 10073,
      "▁第十": 10074,
      "的黑道": 10075,
      "身边，": 10076,
      "一定要": 10077,
      "这一幕": 10078,
      "片刻之后": 10079,
      "的神色": 10080,
      "白王的": 10081,
      "对他来说": 10082,
      "瞳孔中": 10083,
      "不由得": 10084,
      "站起身来，": 10085,
      "拉斯普京": 10086,
      "45": 10087,
      "am": 10088,
      "▁所有人都": 10089,
      "一部": 10090,
      "上班": 10091,
      "下一个": 10092,
      "不及": 10093,
      "丢下": 10094,
      "丢在": 10095,
      "主角": 10096,
      "了指": 10097,
      "什尼亚": 10098,
      "今年": 10099,
      "你说": 10100,
      "傀儡": 10101,
      "共同": 10102,
      "出卖": 10103,
      "到如今": 10104,
      "刹车": 10105,
      "匆匆": 10106,
      "升起": 10107,
      "半分钟": 10108,
      "卡尔": 10109,
      "原上": 10110,
      "在她的": 10111,
      "在中国": 10112,
      "多的": 10113,
      "太大": 10114,
      "失踪": 10115,
      "寂寞": 10116,
      "平台": 10117,
      "我和": 10118,
      "手里，": 10119,
      "搞得": 10120,
      "搭配": 10121,
      "无奈": 10122,
      "无辜": 10123,
      "星际": 10124,
      "格陵": 10125,
      "正是": 10126,
      "气势": 10127,
      "点点头，": 10128,
      "热情": 10129,
      "爆血": 10130,
      "现金": 10131,
      "琳娜": 10132,
      "略微": 10133,
      "病人": 10134,
      "的银": 10135,
      "笑得": 10136,
      "纯血": 10137,
      "维什尼亚": 10138,
      "能否": 10139,
      "自信": 10140,
      "自卫": 10141,
      "补充": 10142,
      "资深": 10143,
      "赤鬼": 10144,
      "跃而": 10145,
      "跟在": 10146,
      "跟自己": 10147,
      "转动": 10148,
      "这对": 10149,
      "这辆": 10150,
      "追求": 10151,
      "透出": 10152,
      "那件": 10153,
      "重量": 10154,
      "金融": 10155,
      "雅彦": 10156,
      "顺便": 10157,
      "领导": 10158,
      "，后": 10159,
      "，血": 10160,
      "，车": 10161,
      "，沿着": 10162,
      "，难道": 10163,
      "，上面": 10164,
      "▁“还有": 10165,
      "了，在": 10166,
      "，“但": 10167,
      "他们，": 10168,
      "，他已经": 10169,
      "，你会": 10170,
      "那么多年": 10171,
      "▁“我靠": 10172,
      "了。但": 10173,
      "的事。\r\n": 10174,
      "根本无法": 10175,
      "，”楚子航": 10176,
      "言灵的": 10177,
      "▁但他": 10178,
      "，对方": 10179,
      "控制室": 10180,
      "娜塔莎": 10181,
      "出一口": 10182,
      "没有人能": 10183,
      "一步步": 10184,
      "十五分钟": 10185,
      "潜水服": 10186,
      "元老们": 10187,
      "凝视着": 10188,
      "摄像头": 10189,
      "气象局": 10190,
      "巧克力": 10191,
      "弗拉梅尔": 10192,
      "望远镜": 10193,
      "格陵兰": 10194,
      "维什尼亚克": 10195,
      "99": 10196,
      "▁J": 10197,
      "▁w": 10198,
      "一段": 10199,
      "不开": 10200,
      "主动": 10201,
      "二战": 10202,
      "他才": 10203,
      "住，": 10204,
      "体重": 10205,
      "你有": 10206,
      "你自己": 10207,
      "修长的": 10208,
      "八岐": 10209,
      "公里，": 10210,
      "出声": 10211,
      "切开": 10212,
      "副驾驶座": 10213,
      "功率": 10214,
      "印象": 10215,
      "厚厚的": 10216,
      "可我": 10217,
      "叶卡": 10218,
      "嘲笑": 10219,
      "大师": 10220,
      "大气": 10221,
      "媒体": 10222,
      "宝贝": 10223,
      "就不会": 10224,
      "尽头，": 10225,
      "席卷": 10226,
      "幽灵": 10227,
      "很喜欢": 10228,
      "心里的": 10229,
      "惊醒": 10230,
      "想。\r\n": 10231,
      "我要": 10232,
      "插在": 10233,
      "搂着": 10234,
      "改造": 10235,
      "更换": 10236,
      "格外": 10237,
      "江湖": 10238,
      "沉没": 10239,
      "沮丧": 10240,
      "油门": 10241,
      "海洋": 10242,
      "游客": 10243,
      "湿透": 10244,
      "满地": 10245,
      "漩涡": 10246,
      "的蛇": 10247,
      "的楚子航": 10248,
      "的技术": 10249,
      "的消息": 10250,
      "神智": 10251,
      "网站": 10252,
      "肩上": 10253,
      "肺螺": 10254,
      "芬里": 10255,
      "血。\r\n": 10256,
      "行走": 10257,
      "观众": 10258,
      "警告": 10259,
      "该死的": 10260,
      "说那": 10261,
      "跟楚子航": 10262,
      "身为": 10263,
      "车窗": 10264,
      "迎接": 10265,
      "这件": 10266,
      "都想": 10267,
      "里最": 10268,
      "，反": 10269,
      "，听": 10270,
      "，橘政宗": 10271,
      "，其他": 10272,
      "，双手": 10273,
      "，永远": 10274,
      "，心说": 10275,
      "▁“还": 10276,
      "。”夏弥": 10277,
      "。”邦达列夫": 10278,
      "他们在": 10279,
      "的人。”\r\n": 10280,
      "像是被": 10281,
      "说，“我们": 10282,
      "，而后": 10283,
      "了。我": 10284,
      "是一座": 10285,
      "么？”诺诺": 10286,
      "，”芬格尔": 10287,
      "之间，": 10288,
      "似乎是": 10289,
      "，如果不是": 10290,
      "为什么不": 10291,
      "樱井雅彦": 10292,
      "下去。\r\n": 10293,
      "，说明": 10294,
      "，没有人": 10295,
      "简直是": 10296,
      "驾驶舱": 10297,
      "会议室": 10298,
      "不好意思": 10299,
      "保持着": 10300,
      "组成的": 10301,
      "挥舞着": 10302,
      "范围内": 10303,
      "密集的": 10304,
      "熊熊燃烧": 10305,
      "瞭望台": 10306,
      "气垫船": 10307,
      "芬里厄": 10308,
      "hon": 10309,
      "▁E": 10310,
      "▁此刻": 10311,
      "。昂热": 10312,
      "。即使": 10313,
      "一万": 10314,
      "一瓶": 10315,
      "不存在": 10316,
      "不记得": 10317,
      "两种": 10318,
      "之所以": 10319,
      "也只是": 10320,
      "了自己": 10321,
      "了出去，": 10322,
      "些什么": 10323,
      "亲手": 10324,
      "会让": 10325,
      "伯特": 10326,
      "关东": 10327,
      "其中的": 10328,
      "内容": 10329,
      "写着": 10330,
      "军用": 10331,
      "凝固": 10332,
      "出国": 10333,
      "反射": 10334,
      "呼喊": 10335,
      "命的": 10336,
      "嗨！": 10337,
      "嘴角": 10338,
      "地盯着": 10339,
      "大哥": 10340,
      "对比": 10341,
      "寻常": 10342,
      "尊重": 10343,
      "屋子里": 10344,
      "年前": 10345,
      "庞大的": 10346,
      "弱点": 10347,
      "强劲": 10348,
      "很容易": 10349,
      "微光": 10350,
      "急忙": 10351,
      "惊叹": 10352,
      "想不到": 10353,
      "慷慨": 10354,
      "扛着": 10355,
      "找出": 10356,
      "把刀": 10357,
      "拔刀": 10358,
      "拾起": 10359,
      "指示": 10360,
      "捂着": 10361,
      "捷琳娜": 10362,
      "掠过": 10363,
      "提高": 10364,
      "搞定": 10365,
      "摩天": 10366,
      "无可": 10367,
      "时期": 10368,
      "是没有": 10369,
      "有多少": 10370,
      "概念": 10371,
      "正式": 10372,
      "气得": 10373,
      "洗澡": 10374,
      "流氓": 10375,
      "流的": 10376,
      "淡定": 10377,
      "深度": 10378,
      "深呼吸": 10379,
      "火力": 10380,
      "牛肉": 10381,
      "猥琐": 10382,
      "留下来": 10383,
      "的脑袋": 10384,
      "着头，": 10385,
      "矗立": 10386,
      "礼貌": 10387,
      "精致": 10388,
      "紫色的": 10389,
      "纠缠": 10390,
      "缺口": 10391,
      "美少女": 10392,
      "肚子": 10393,
      "茫然": 10394,
      "血迹": 10395,
      "解剖": 10396,
      "调整": 10397,
      "输入": 10398,
      "遇见": 10399,
      "里传来": 10400,
      "隔壁": 10401,
      "集团": 10402,
      "雕刻": 10403,
      "面目": 10404,
      "面罩": 10405,
      "黏液": 10406,
      "，日本": 10407,
      "，苏恩曦": 10408,
      "，大概是": 10409,
      "▁“从": 10410,
      "▁“这种": 10411,
      "了，如果": 10412,
      "，但我们": 10413,
      "觉得他": 10414,
      "▁他忽然": 10415,
      "，在这里": 10416,
      "，他们会": 10417,
      "这些年": 10418,
      "完全不同": 10419,
      "甚至没有": 10420,
      "当然是": 10421,
      "克里斯廷娜的": 10422,
      "过来。\r\n": 10423,
      "在地下": 10424,
      "跟我说": 10425,
      "扭头看向": 10426,
      "附近的": 10427,
      "狙击手": 10428,
      "赤鬼川": 10429,
      "叶卡捷琳娜": 10430,
      "As": 10431,
      "IP": 10432,
      "ip": 10433,
      "’。”\r\n": 10434,
      "▁龙": 10435,
      "▁最后": 10436,
      "▁风间琉璃": 10437,
      "▁路麟城": 10438,
      "。橘政宗": 10439,
      "不明白": 10440,
      "不愧是": 10441,
      "也是个": 10442,
      "了吧？”": 10443,
      "仔细": 10444,
      "他又": 10445,
      "他都": 10446,
      "会死": 10447,
      "侧面": 10448,
      "内心": 10449,
      "再怎么": 10450,
      "凭借": 10451,
      "出价": 10452,
      "切林": 10453,
      "列火车": 10454,
      "华丽": 10455,
      "叹息": 10456,
      "后代": 10457,
      "四大": 10458,
      "围着": 10459,
      "在小": 10460,
      "在心里": 10461,
      "在里面": 10462,
      "坚固": 10463,
      "天下": 10464,
      "太久": 10465,
      "契切林": 10466,
      "奖学": 10467,
      "女人，": 10468,
      "小弟": 10469,
      "尔特": 10470,
      "屠小": 10471,
      "应付": 10472,
      "心思": 10473,
      "态度": 10474,
      "惊呆": 10475,
      "戴上": 10476,
      "打个": 10477,
      "托盘": 10478,
      "投入": 10479,
      "按下": 10480,
      "揭开": 10481,
      "擦肩": 10482,
      "放过": 10483,
      "敏感": 10484,
      "斩断": 10485,
      "无与伦比": 10486,
      "有几": 10487,
      "有力": 10488,
      "有这么": 10489,
      "未能": 10490,
      "标志": 10491,
      "模一样": 10492,
      "水底": 10493,
      "沉浸": 10494,
      "海军": 10495,
      "混蛋": 10496,
      "牛奶": 10497,
      "疑惑": 10498,
      "百万": 10499,
      "的发": 10500,
      "的关系": 10501,
      "着的": 10502,
      "祖母": 10503,
      "稚女": 10504,
      "等候": 10505,
      "箱里": 10506,
      "组合": 10507,
      "统治": 10508,
      "老子": 10509,
      "腹部": 10510,
      "譬如": 10511,
      "谨慎": 10512,
      "赚钱": 10513,
      "赶来": 10514,
      "跟恺撒": 10515,
      "轮到": 10516,
      "这一切": 10517,
      "长地": 10518,
      "雨中": 10519,
      "露出了": 10520,
      "霸王": 10521,
      "鬼齿": 10522,
      "，多": 10523,
      "，成": 10524,
      "，黑色的": 10525,
      "，后来": 10526,
      "▁“说": 10527,
      "自己在": 10528,
      "……路明非": 10529,
      "这个女孩": 10530,
      "了一些": 10531,
      "了一条": 10532,
      "▁他把": 10533,
      "现在是": 10534,
      "怎么可能": 10535,
      "是一位": 10536,
      "眼睛，“": 10537,
      "着一辆": 10538,
      "身上下": 10539,
      "▁“不用": 10540,
      "的老人": 10541,
      "在这个世界上": 10542,
      "，没准": 10543,
      "高天原的": 10544,
      "可怕的": 10545,
      "继承人": 10546,
      "表现出": 10547,
      "认真地": 10548,
      "dot;": 10549,
      "iddot;": 10550,
      "新宿区": 10551,
      "&middot;": 10552,
      "破冰船": 10553,
      "弗里嘉": 10554,
      "▁of": 10555,
      "奖学金": 10556,
      "鬼齿龙蝰": 10557,
      "A级": 10558,
      "ow": 10559,
      "▁乔薇尼": 10560,
      "。如今": 10561,
      "一圈": 10562,
      "一时": 10563,
      "上千": 10564,
      "不信": 10565,
      "两根": 10566,
      "之剑": 10567,
      "之处": 10568,
      "了“": 10569,
      "了出来": 10570,
      "侧的": 10571,
      "保镖": 10572,
      "做得": 10573,
      "免得": 10574,
      "全体": 10575,
      "公寓": 10576,
      "军队": 10577,
      "冲着": 10578,
      "剧痛": 10579,
      "加油": 10580,
      "化妆": 10581,
      "厅里": 10582,
      "厨房": 10583,
      "去死": 10584,
      "反击": 10585,
      "发疯": 10586,
      "可爱": 10587,
      "吃了": 10588,
      "名死侍": 10589,
      "向前": 10590,
      "和小": 10591,
      "和乌鸦": 10592,
      "嘴里，": 10593,
      "在我们": 10594,
      "地在": 10595,
      "壁上": 10596,
      "大事": 10597,
      "妩媚": 10598,
      "学术": 10599,
      "完了，": 10600,
      "对待": 10601,
      "对象": 10602,
      "尔伯特": 10603,
      "岁的": 10604,
      "岛上": 10605,
      "左轮": 10606,
      "希尔伯特": 10607,
      "康斯坦": 10608,
      "当年的": 10609,
      "恭敬": 10610,
      "手臂": 10611,
      "才发现": 10612,
      "扑面": 10613,
      "扫射": 10614,
      "扭动": 10615,
      "投资": 10616,
      "挠挠": 10617,
      "探索": 10618,
      "撞在": 10619,
      "时速": 10620,
      "是路明非": 10621,
      "是他们": 10622,
      "是不会": 10623,
      "月台": 10624,
      "未免": 10625,
      "末端": 10626,
      "构成": 10627,
      "模仿": 10628,
      "泄露": 10629,
      "派人": 10630,
      "浓郁": 10631,
      "浮现": 10632,
      "游乐园": 10633,
      "漂浮": 10634,
      "珍贵": 10635,
      "的只是": 10636,
      "看她": 10637,
      "眼。\r\n": 10638,
      "着急": 10639,
      "石头": 10640,
      "稚生": 10641,
      "等等": 10642,
      "纵横": 10643,
      "而过，": 10644,
      "肌肤": 10645,
      "苹果": 10646,
      "衣柜": 10647,
      "要不是": 10648,
      "解除": 10649,
      "该是": 10650,
      "请柬": 10651,
      "财务": 10652,
      "跟诺诺": 10653,
      "踏上": 10654,
      "进去，": 10655,
      "那块": 10656,
      "都给": 10657,
      "都不能": 10658,
      "闭上": 10659,
      "阶级": 10660,
      "陪着": 10661,
      "预料": 10662,
      "额头": 10663,
      "风，": 10664,
      "鲨鱼": 10665,
      "黄铜": 10666,
      "，人": 10667,
      "，如": 10668,
      "，生": 10669,
      "，龙": 10670,
      "，乌鸦": 10671,
      "▁“那个": 10672,
      "，这座": 10673,
      "，这时": 10674,
      "，这条": 10675,
      "，这家伙": 10676,
      "，我要": 10677,
      "说，“但": 10678,
      "只是在": 10679,
      "▁他从": 10680,
      "怎么知道": 10681,
      "。他在": 10682,
      "，可你": 10683,
      "之后的": 10684,
      "那样的": 10685,
      "路鸣泽的": 10686,
      "孩子的": 10687,
      "准备好": 10688,
      "子弹的": 10689,
      "▁“不不": 10690,
      "在那里，": 10691,
      "在地上，": 10692,
      "所谓的": 10693,
      "看不清": 10694,
      "的长发": 10695,
      "冷冷地说。\r\n": 10696,
      "狮心会的": 10697,
      "暴露在": 10698,
      "死死地盯着": 10699,
      "不停地": 10700,
      "皇女殿下": 10701,
      "梆子声": 10702,
      "康斯坦丁": 10703,
      "3E": 10704,
      "一人": 10705,
      "不惜": 10706,
      "不经": 10707,
      "不说": 10708,
      "了。”路明非": 10709,
      "从他的": 10710,
      "代号": 10711,
      "仪式": 10712,
      "仪表": 10713,
      "充满": 10714,
      "克隆": 10715,
      "其次": 10716,
      "军火": 10717,
      "出于": 10718,
      "出席": 10719,
      "出自": 10720,
      "前后": 10721,
      "剧烈的": 10722,
      "加迪": 10723,
      "动静": 10724,
      "卡杜拉": 10725,
      "参观": 10726,
      "发出了": 10727,
      "古怪": 10728,
      "古董": 10729,
      "叮嘱": 10730,
      "可笑": 10731,
      "听得": 10732,
      "啊？”": 10733,
      "啊……": 10734,
      "喝了": 10735,
      "四十": 10736,
      "圆形": 10737,
      "墙上，": 10738,
      "太子": 10739,
      "它在": 10740,
      "实地": 10741,
      "室的": 10742,
      "山顶": 10743,
      "布加迪": 10744,
      "帝国": 10745,
      "幻想": 10746,
      "庆祝": 10747,
      "废物": 10748,
      "庭院": 10749,
      "开放": 10750,
      "强硬": 10751,
      "很像": 10752,
      "很可能": 10753,
      "得上": 10754,
      "心惊": 10755,
      "情形": 10756,
      "我。”\r\n": 10757,
      "抽搐": 10758,
      "推门": 10759,
      "掩盖": 10760,
      "攻城": 10761,
      "暗示": 10762,
      "权限": 10763,
      "栋楼": 10764,
      "校工": 10765,
      "此外": 10766,
      "求婚": 10767,
      "流动着": 10768,
      "漫步": 10769,
      "珍贵的": 10770,
      "电光": 10771,
      "的马": 10772,
      "的！”\r\n": 10773,
      "真空": 10774,
      "碎了": 10775,
      "私下": 10776,
      "突击": 10777,
      "精确": 10778,
      "绕着": 10779,
      "美人": 10780,
      "美好的": 10781,
      "老式": 10782,
      "者们": 10783,
      "能做到": 10784,
      "落叶": 10785,
      "藏骸": 10786,
      "警视": 10787,
      "计的": 10788,
      "让·": 10789,
      "误以为": 10790,
      "越是": 10791,
      "那时": 10792,
      "那颗": 10793,
      "都得": 10794,
      "铁链": 10795,
      "铁门": 10796,
      "错，": 10797,
      "阿卡杜拉": 10798,
      "降落": 10799,
      "陷入": 10800,
      "霍格": 10801,
      "非要": 10802,
      "面。\r\n": 10803,
      "马耶": 10804,
      "黑卡": 10805,
      "，光": 10806,
      "，刀": 10807,
      "，加": 10808,
      "，换": 10809,
      "▁“能": 10810,
      "什么都不": 10811,
      "一个人，": 10812,
      "就是这么": 10813,
      "的人是": 10814,
      "觉得这": 10815,
      "，一定": 10816,
      "，可惜": 10817,
      "▁“我是": 10818,
      "时间零": 10819,
      "的地位": 10820,
      "的大海": 10821,
      "的女孩，": 10822,
      "微微点头": 10823,
      "杀死了": 10824,
      "的心情": 10825,
      "发生在": 10826,
      "无数的": 10827,
      "说得对": 10828,
      "白王血裔": 10829,
      "牛郎店": 10830,
      "在水中": 10831,
      "作战服": 10832,
      "雪橇犬": 10833,
      "下水道": 10834,
      "各种各样的": 10835,
      "尼德霍格": 10836,
      "八岐大蛇": 10837,
      "屠小娇": 10838,
      "藏骸之井": 10839,
      "22": 10840,
      "MP": 10841,
      "”地": 10842,
      "”和“": 10843,
      "▁H": 10844,
      "▁N": 10845,
      "不介意": 10846,
      "两次": 10847,
      "为自己": 10848,
      "久的": 10849,
      "乌贼": 10850,
      "先进": 10851,
      "冲到": 10852,
      "凝重": 10853,
      "分为": 10854,
      "分辨": 10855,
      "千上万": 10856,
      "博倩": 10857,
      "发觉": 10858,
      "受了": 10859,
      "口呆": 10860,
      "可怖": 10861,
      "可真": 10862,
      "叼着": 10863,
      "吞没": 10864,
      "响指": 10865,
      "声中": 10866,
      "太平": 10867,
      "妹妹": 10868,
      "威风": 10869,
      "学员": 10870,
      "宗教": 10871,
      "小路": 10872,
      "尾随": 10873,
      "岩岩": 10874,
      "巴掌": 10875,
      "带她": 10876,
      "废弃": 10877,
      "彬彬": 10878,
      "往后": 10879,
      "循环": 10880,
      "心事": 10881,
      "怎样": 10882,
      "成年": 10883,
      "我可以": 10884,
      "手帕": 10885,
      "打得": 10886,
      "把他的": 10887,
      "持续": 10888,
      "摸出一": 10889,
      "整整齐": 10890,
      "文化": 10891,
      "无线": 10892,
      "昨天": 10893,
      "暴风雪": 10894,
      "望向": 10895,
      "杀伤": 10896,
      "来的时候": 10897,
      "正从": 10898,
      "死掉": 10899,
      "水晶": 10900,
      "没办法": 10901,
      "洞穿": 10902,
      "深鞠躬": 10903,
      "清洗": 10904,
      "游动": 10905,
      "滚滚": 10906,
      "瀑布": 10907,
      "的日本": 10908,
      "的领域": 10909,
      "的衣服": 10910,
      "的照片": 10911,
      "的阳光": 10912,
      "的原因": 10913,
      "目瞪": 10914,
      "睁开了": 10915,
      "碰撞": 10916,
      "神殿": 10917,
      "禁止": 10918,
      "窒息": 10919,
      "站了起来，": 10920,
      "给人": 10921,
      "绝不": 10922,
      "绳子": 10923,
      "缓步": 10924,
      "老老实": 10925,
      "者。\r\n": 10926,
      "而来的": 10927,
      "胸前": 10928,
      "自豪": 10929,
      "荷官": 10930,
      "衣，": 10931,
      "表白": 10932,
      "衰仔": 10933,
      "让路明非": 10934,
      "说出来": 10935,
      "谢苗": 10936,
      "质的": 10937,
      "跟我们": 10938,
      "躲避": 10939,
      "轮胎": 10940,
      "这项": 10941,
      "这辈子": 10942,
      "遮挡": 10943,
      "部门": 10944,
      "都不是": 10945,
      "错了，": 10946,
      "防护": 10947,
      "随身": 10948,
      "餐桌": 10949,
      "，双": 10950,
      "，时间": 10951,
      "，克里斯廷娜": 10952,
      "，显然": 10953,
      "，唯有": 10954,
      "，“别": 10955,
      "什么事": 10956,
      "，但你": 10957,
      "，他会": 10958,
      "的，她": 10959,
      "，这间": 10960,
      "▁路明非忽然": 10961,
      "布宁先生": 10962,
      "的一幕": 10963,
      "么？”楚子航": 10964,
      "塞尔玛": 10965,
      "老板的": 10966,
      "缓缓地说。\r\n": 10967,
      "手机，": 10968,
      "▁“那你": 10969,
      "天空，": 10970,
      "在地上": 10971,
      "，想来": 10972,
      "普通的": 10973,
      "随时会": 10974,
      "角落里，": 10975,
      "爸爸妈妈": 10976,
      "挣扎着": 10977,
      "，并且": 10978,
      "阿尔法": 10979,
      "牢牢地": 10980,
      "悄无声息地": 10981,
      "卡尔副": 10982,
      "马耶克": 10983,
      "整整齐齐": 10984,
      "目瞪口呆": 10985,
      "40": 10986,
      "ng": 10987,
      "pas": 10988,
      "▁G": 10989,
      "一击": 10990,
      "上的人": 10991,
      "不解": 10992,
      "丰富": 10993,
      "了他们": 10994,
      "了下去，": 10995,
      "井底": 10996,
      "亲近": 10997,
      "便如": 10998,
      "僵硬": 10999,
      "兢兢": 11000,
      "军官": 11001,
      "出入": 11002,
      "刺眼": 11003,
      "刺穿": 11004,
      "前任": 11005,
      "又有什么": 11006,
      "及时": 11007,
      "发亮": 11008,
      "取消": 11009,
      "变异": 11010,
      "可疑": 11011,
      "同样的": 11012,
      "呢，": 11013,
      "哪儿": 11014,
      "啊？”\r\n": 11015,
      "嚷嚷": 11016,
      "在风中": 11017,
      "天台": 11018,
      "头也不": 11019,
      "实际": 11020,
      "小女孩": 11021,
      "就行": 11022,
      "就已经": 11023,
      "底部": 11024,
      "废话": 11025,
      "强烈": 11026,
      "当地": 11027,
      "徐岩岩": 11028,
      "才对": 11029,
      "把头": 11030,
      "抗拒": 11031,
      "抽着": 11032,
      "指了指": 11033,
      "损失": 11034,
      "搏斗": 11035,
      "放映": 11036,
      "旁，": 11037,
      "无比": 11038,
      "日圆": 11039,
      "早该": 11040,
      "明治": 11041,
      "星星": 11042,
      "智慧": 11043,
      "有可能": 11044,
      "来救": 11045,
      "汹涌": 11046,
      "流星": 11047,
      "漫长的": 11048,
      "潇洒": 11049,
      "烈火": 11050,
      "熟练": 11051,
      "爱上": 11052,
      "爹妈": 11053,
      "物种": 11054,
      "狂欢": 11055,
      "独立": 11056,
      "猜到": 11057,
      "瑟瑟": 11058,
      "的热": 11059,
      "的安全": 11060,
      "的办法": 11061,
      "的肌肉": 11062,
      "的情报": 11063,
      "目睹": 11064,
      "看一眼": 11065,
      "神奇": 11066,
      "窗口": 11067,
      "类的": 11068,
      "精灵": 11069,
      "紧身": 11070,
      "罕见的": 11071,
      "老朋友": 11072,
      "至尊": 11073,
      "英文": 11074,
      "落日": 11075,
      "装甲": 11076,
      "觉醒": 11077,
      "身在": 11078,
      "过于": 11079,
      "那片": 11080,
      "酒精": 11081,
      "金刚": 11082,
      "钢琴": 11083,
      "长达": 11084,
      "集体": 11085,
      "面瘫": 11086,
      "顶部": 11087,
      "风声": 11088,
      "首歌": 11089,
      "高阶": 11090,
      "，声音": 11091,
      "，必须": 11092,
      "，经过": 11093,
      "▁“快": 11094,
      "▁“为什么": 11095,
      "。”上杉越": 11096,
      "一个个": 11097,
      "！”昂热": 11098,
      "了一把": 11099,
      "，可她": 11100,
      "是个好": 11101,
      "出来了，": 11102,
      "这么多": 11103,
      "这么想": 11104,
      "这是什么": 11105,
      "也不敢": 11106,
      "面前的": 11107,
      "，所以他": 11108,
      "酒德亚纪": 11109,
      "着一张": 11110,
      "一点都不": 11111,
      "的老家伙": 11112,
      "淡淡的": 11113,
      "每个人的": 11114,
      "战斗力": 11115,
[...]
